{
  "version": "1.0",
  "truncation": null,
  "padding": null,
  "added_tokens": [
    {
      "id": 0,
      "content": "<pad>",
      "single_word": false,
      "lstrip": false,
      "rstrip": false,
      "normalized": false,
      "special": true
    },
    {
      "id": 1,
      "content": "<s>",
      "single_word": false,
      "lstrip": false,
      "rstrip": false,
      "normalized": false,
      "special": true
    },
    {
      "id": 2,
      "content": "</s>",
      "single_word": false,
      "lstrip": false,
      "rstrip": false,
      "normalized": false,
      "special": true
    },
    {
      "id": 3,
      "content": "<unk>",
      "single_word": false,
      "lstrip": false,
      "rstrip": false,
      "normalized": false,
      "special": true
    }
  ],
  "normalizer": null,
  "pre_tokenizer": {
    "type": "ByteLevel",
    "add_prefix_space": false,
    "trim_offsets": true,
    "use_regex": true
  },
  "post_processor": null,
  "decoder": {
    "type": "ByteLevel",
    "add_prefix_space": true,
    "trim_offsets": true,
    "use_regex": true
  },
  "model": {
    "type": "BPE",
    "dropout": null,
    "unk_token": null,
    "continuing_subword_prefix": null,
    "end_of_word_suffix": null,
    "fuse_unk": false,
    "byte_fallback": false,
    "ignore_merges": false,
    "vocab": {
      "<pad>": 0,
      "<s>": 1,
      "</s>": 2,
      "<unk>": 3,
      "!": 4,
      "\"": 5,
      "#": 6,
      "$": 7,
      "%": 8,
      "&": 9,
      "'": 10,
      "(": 11,
      ")": 12,
      "*": 13,
      "+": 14,
      ",": 15,
      "-": 16,
      ".": 17,
      "/": 18,
      "0": 19,
      "1": 20,
      "2": 21,
      "3": 22,
      "4": 23,
      "5": 24,
      "6": 25,
      "7": 26,
      "8": 27,
      "9": 28,
      ":": 29,
      ";": 30,
      "<": 31,
      "=": 32,
      ">": 33,
      "?": 34,
      "@": 35,
      "A": 36,
      "B": 37,
      "C": 38,
      "D": 39,
      "E": 40,
      "F": 41,
      "G": 42,
      "H": 43,
      "I": 44,
      "J": 45,
      "K": 46,
      "L": 47,
      "M": 48,
      "N": 49,
      "O": 50,
      "P": 51,
      "Q": 52,
      "R": 53,
      "S": 54,
      "T": 55,
      "U": 56,
      "V": 57,
      "W": 58,
      "X": 59,
      "Y": 60,
      "Z": 61,
      "[": 62,
      "\\": 63,
      "]": 64,
      "^": 65,
      "_": 66,
      "`": 67,
      "a": 68,
      "b": 69,
      "c": 70,
      "d": 71,
      "e": 72,
      "f": 73,
      "g": 74,
      "h": 75,
      "i": 76,
      "j": 77,
      "k": 78,
      "l": 79,
      "m": 80,
      "n": 81,
      "o": 82,
      "p": 83,
      "q": 84,
      "r": 85,
      "s": 86,
      "t": 87,
      "u": 88,
      "v": 89,
      "w": 90,
      "x": 91,
      "y": 92,
      "z": 93,
      "{": 94,
      "|": 95,
      "}": 96,
      "~": 97,
      "¡": 98,
      "¢": 99,
      "£": 100,
      "¤": 101,
      "¥": 102,
      "¦": 103,
      "§": 104,
      "¨": 105,
      "©": 106,
      "ª": 107,
      "«": 108,
      "¬": 109,
      "®": 110,
      "¯": 111,
      "°": 112,
      "±": 113,
      "²": 114,
      "³": 115,
      "´": 116,
      "µ": 117,
      "¶": 118,
      "·": 119,
      "¸": 120,
      "¹": 121,
      "º": 122,
      "»": 123,
      "¼": 124,
      "½": 125,
      "¾": 126,
      "¿": 127,
      "Â": 128,
      "Ã": 129,
      "Ä": 130,
      "Å": 131,
      "Æ": 132,
      "Ç": 133,
      "È": 134,
      "É": 135,
      "Ê": 136,
      "Ë": 137,
      "Ì": 138,
      "Í": 139,
      "Î": 140,
      "Ï": 141,
      "Ð": 142,
      "Ñ": 143,
      "Ò": 144,
      "Ó": 145,
      "Ô": 146,
      "Õ": 147,
      "Ö": 148,
      "×": 149,
      "Ø": 150,
      "Ù": 151,
      "Ú": 152,
      "Û": 153,
      "Ü": 154,
      "à": 155,
      "á": 156,
      "â": 157,
      "ã": 158,
      "ä": 159,
      "å": 160,
      "æ": 161,
      "ç": 162,
      "è": 163,
      "é": 164,
      "ê": 165,
      "ë": 166,
      "ì": 167,
      "í": 168,
      "ï": 169,
      "ð": 170,
      "ĉ": 171,
      "Ċ": 172,
      "č": 173,
      "Ġ": 174,
      "Ģ": 175,
      "ģ": 176,
      "Ĥ": 177,
      "ĥ": 178,
      "Ħ": 179,
      "ħ": 180,
      "Ĩ": 181,
      "ĩ": 182,
      "Ī": 183,
      "ī": 184,
      "Ĭ": 185,
      "ĭ": 186,
      "Į": 187,
      "į": 188,
      "İ": 189,
      "ı": 190,
      "Ĳ": 191,
      "ĳ": 192,
      "Ĵ": 193,
      "ĵ": 194,
      "Ķ": 195,
      "ķ": 196,
      "ĸ": 197,
      "Ĺ": 198,
      "ĺ": 199,
      "Ļ": 200,
      "ļ": 201,
      "Ľ": 202,
      "ľ": 203,
      "Ŀ": 204,
      "ŀ": 205,
      "Ł": 206,
      "ł": 207,
      "Ń": 208,
      "Ġt": 209,
      "Ġa": 210,
      "he": 211,
      "in": 212,
      "re": 213,
      "on": 214,
      "Ġthe": 215,
      "er": 216,
      "Ġs": 217,
      "at": 218,
      "Ġo": 219,
      "en": 220,
      "Ġc": 221,
      "es": 222,
      "Ġw": 223,
      "nd": 224,
      "it": 225,
      "is": 226,
      "or": 227,
      "čĊ": 228,
      "al": 229,
      "ed": 230,
      "Ġp": 231,
      "ing": 232,
      "Ġf": 233,
      "Ġb": 234,
      "an": 235,
      "Ġof": 236,
      "ar": 237,
      "Ġin": 238,
      "ou": 239,
      "Ġand": 240,
      "Ġm": 241,
      "ic": 242,
      "Ġto": 243,
      "ion": 244,
      "Ġd": 245,
      "le": 246,
      "ro": 247,
      "as": 248,
      "Ġh": 249,
      "ent": 250,
      "Ġth": 251,
      "Ġe": 252,
      "ct": 253,
      "Ġre": 254,
      "il": 255,
      "om": 256,
      "Ġl": 257,
      "st": 258,
      "ve": 259,
      "Ġn": 260,
      "ly": 261,
      "ĠT": 262,
      "et": 263,
      "ol": 264,
      "Ġg": 265,
      "ation": 266,
      "im": 267,
      "id": 268,
      "se": 269,
      "Ġbe": 270,
      "ce": 271,
      "ur": 272,
      "ut": 273,
      "ra": 274,
      "un": 275,
      "ĠA": 276,
      "Ġis": 277,
      "ĠS": 278,
      "ow": 279,
      "ig": 280,
      "ch": 281,
      "ot": 282,
      "Ġfor": 283,
      "ver": 284,
      "Ġon": 285,
      "ĠC": 286,
      "Ġst": 287,
      "ir": 288,
      "Ġthat": 289,
      "ĠI": 290,
      "am": 291,
      "ay": 292,
      "ul": 293,
      "ad": 294,
      "us": 295,
      "el": 296,
      "ith": 297,
      "her": 298,
      "Ġy": 299,
      "Ġas": 300,
      "Ġcon": 301,
      "âĢ": 302,
      "Ġwith": 303,
      "Ġpro": 304,
      "ter": 305,
      "ĠM": 306,
      "Ġwh": 307,
      "if": 308,
      "Ġan": 309,
      "Ġ1": 310,
      "ĠThe": 311,
      "Ġit": 312,
      "Ġor": 313,
      "Ġal": 314,
      "od": 315,
      "Ġ(": 316,
      "ĠP": 317,
      "ist": 318,
      "th": 319,
      "em": 320,
      "ies": 321,
      "ĠB": 322,
      "ers": 323,
      "Ġare": 324,
      "ag": 325,
      "Ġyou": 326,
      "Ġhe": 327,
      "Ġex": 328,
      "ate": 329,
      "op": 330,
      "ĠH": 331,
      "Ġ,": 332,
      "res": 333,
      "um": 334,
      "ab": 335,
      "ess": 336,
      "Ġcom": 337,
      "Ġde": 338,
      "Ġwas": 339,
      "ere": 340,
      "ac": 341,
      "ect": 342,
      "and": 343,
      "ill": 344,
      "ri": 345,
      "ore": 346,
      "ity": 347,
      "est": 348,
      "ld": 349,
      "os": 350,
      "ĠW": 351,
      "Ġv": 352,
      "ment": 353,
      "Ġby": 354,
      "qu": 355,
      "pp": 356,
      "ain": 357,
      "rom": 358,
      "ke": 359,
      "Ġsu": 360,
      "Ġat": 361,
      "ive": 362,
      "igh": 363,
      "ĠD": 364,
      "ant": 365,
      "ĠR": 366,
      "iv": 367,
      "Ġ.": 368,
      "ĠF": 369,
      "Ġu": 370,
      "ĠE": 371,
      "Ġse": 372,
      "ci": 373,
      "Ġch": 374,
      "Ġfrom": 375,
      "ort": 376,
      "ud": 377,
      "Ġha": 378,
      "Ġne": 379,
      "Ġr": 380,
      "Ġ2": 381,
      "Ġ\"": 382,
      "ĠN": 383,
      "ical": 384,
      "ure": 385,
      "nt": 386,
      "unk": 387,
      "art": 388,
      "ĠL": 389,
      "Ġle": 390,
      "ĠG": 391,
      "Ġ<": 392,
      "all": 393,
      "Ġen": 394,
      "rou": 395,
      "Ġcan": 396,
      "Ġsh": 397,
      "Ġsp": 398,
      "'s": 399,
      "ight": 400,
      "gh": 401,
      "Ġnot": 402,
      "ap": 403,
      "og": 404,
      "00": 405,
      "ions": 406,
      "out": 407,
      "ge": 408,
      "Ġab": 409,
      "Ġhave": 410,
      "ine": 411,
      "our": 412,
      "ard": 413,
      "ĠO": 414,
      "Ġpl": 415,
      "--": 416,
      "ome": 417,
      "Ġint": 418,
      "Ġthis": 419,
      "pl": 420,
      "ould": 421,
      "Ġwe": 422,
      "ich": 423,
      "Ġwor": 424,
      "oc": 425,
      "ust": 426,
      "ther": 427,
      "ated": 428,
      "ĠJ": 429,
      "pt": 430,
      "ost": 431,
      "Ġim": 432,
      "Ġtheir": 433,
      "ous": 434,
      "Ġus": 435,
      "are": 436,
      "iz": 437,
      "ell": 438,
      "ast": 439,
      "ĠU": 440,
      "act": 441,
      "Ġwhe": 442,
      "ak": 443,
      "per": 444,
      "ong": 445,
      "Ġad": 446,
      "Ġk": 447,
      "ff": 448,
      "ations": 449,
      "ans": 450,
      "ear": 451,
      "ide": 452,
      "Ġcont": 453,
      "ally": 454,
      "ult": 455,
      "ĠIn": 456,
      "du": 457,
      "The": 458,
      "end": 459,
      "Ġthey": 460,
      "Ġinc": 461,
      "ew": 462,
      "ary": 463,
      "Ġcomp": 464,
      "ĠâĢ": 465,
      "Ġso": 466,
      "ib": 467,
      "Ġwhich": 468,
      "cc": 469,
      "Ġdis": 470,
      "Ġres": 471,
      "so": 472,
      "Ġun": 473,
      "orm": 474,
      "Ġall": 475,
      "age": 476,
      "ood": 477,
      "âĢĻ": 478,
      "ru": 479,
      "Ġ19": 480,
      "vel": 481,
      "Ġyour": 482,
      "ia": 483,
      "ip": 484,
      "ĠTh": 485,
      "ance": 486,
      "able": 487,
      "Ġwere": 488,
      "Ġhis": 489,
      "ks": 490,
      "ire": 491,
      "Ġcl": 492,
      "ial": 493,
      "ind": 494,
      "ec": 495,
      "ry": 496,
      "ence": 497,
      "ents": 498,
      "ater": 499,
      "Ġmore": 500,
      "Ġother": 501,
      "Ġbut": 502,
      "ign": 503,
      "ep": 504,
      "Ġhas": 505,
      "Ġman": 506,
      "Ġdo": 507,
      "Ġwill": 508,
      "av": 509,
      "Ġar": 510,
      "ach": 511,
      "ress": 512,
      "Ġme": 513,
      "ber": 514,
      "Ġper": 515,
      "Ġj": 516,
      "Ġte": 517,
      "ame": 518,
      "reat": 519,
      "oo": 520,
      "ild": 521,
      "Ġone": 522,
      "Ġ=": 523,
      "ction": 524,
      "Ġabout": 525,
      "ĠSt": 526,
      "Ġapp": 527,
      "ass": 528,
      "ice": 529,
      "Ġimp": 530,
      "Ġwho": 531,
      "Ġev": 532,
      "very": 533,
      "ime": 534,
      "ory": 535,
      "ces": 536,
      "Ġpre": 537,
      "ack": 538,
      "ition": 539,
      "one": 540,
      "Ġout": 541,
      "ord": 542,
      "ike": 543,
      "ace": 544,
      "Ġpart": 545,
      "Ġup": 546,
      "ake": 547,
      "ile": 548,
      "ound": 549,
      "ors": 550,
      "Ġcomm": 551,
      "ish": 552,
      "ens": 553,
      "ase": 554,
      "ang": 555,
      "ue": 556,
      "au": 557,
      "Ġalso": 558,
      "ount": 559,
      "ĠCh": 560,
      "nder": 561,
      "form": 562,
      "Ġinto": 563,
      "Ġhad": 564,
      "ie": 565,
      "Ġsa": 566,
      "ub": 567,
      "rit": 568,
      "Ġthem": 569,
      "ose": 570,
      "ric": 571,
      "rough": 572,
      "olog": 573,
      "own": 574,
      "Ġits": 575,
      "mer": 576,
      "ings": 577,
      "ĠčĊ": 578,
      "ĠK": 579,
      "low": 580,
      "Ġbec": 581,
      "ree": 582,
      "Ġpe": 583,
      "ough": 584,
      "ian": 585,
      "Ġthese": 586,
      "Ġsome": 587,
      "Ġqu": 588,
      "Ġsy": 589,
      "Ġro": 590,
      "ays": 591,
      "Ġag": 592,
      "ĠIt": 593,
      "ual": 594,
      "Ġstud": 595,
      "ates": 596,
      "Ġtra": 597,
      "Ġmay": 598,
      "Ġthan": 599,
      "ite": 600,
      "Ġrec": 601,
      "Ġwhen": 602,
      "erv": 603,
      ").": 604,
      "Ġkn": 605,
      "Ġthere": 606,
      "ond": 607,
      "Ġtime": 608,
      "vers": 609,
      "Ġlike": 610,
      "Ġbeen": 611,
      "ph": 612,
      "fere": 613,
      "ail": 614,
      "ons": 615,
      "Ġcol": 616,
      "lud": 617,
      "Ġ'": 618,
      "Ġover": 619,
      "Ġgo": 620,
      "Ġyear": 621,
      "ific": 622,
      "Ġind": 623,
      "Ġunder": 624,
      "Ġbet": 625,
      "tern": 626,
      "ities": 627,
      "ĠV": 628,
      "ating": 629,
      "Ġra": 630,
      "irst": 631,
      "Ġdes": 632,
      "Ġ3": 633,
      "Ġtw": 634,
      "Ġhow": 635,
      "king": 636,
      "ll": 637,
      "ove": 638,
      "ts": 639,
      "hed": 640,
      "Ġcons": 641,
      "pe": 642,
      "ĠHe": 643,
      "Ġ@": 644,
      "we": 645,
      "----": 646,
      "ople": 647,
      "les": 648,
      "ms": 649,
      "ious": 650,
      "te": 651,
      "red": 652,
      "lect": 653,
      "uring": 654,
      "Ġnew": 655,
      "lic": 656,
      "Ġwould": 657,
      "âĢĿ": 658,
      "Ġsuch": 659,
      "ĠY": 660,
      "Ġrel": 661,
      "ĠThis": 662,
      "Ġher": 663,
      "ov": 664,
      "ning": 665,
      "round": 666,
      "Ġdif": 667,
      "row": 668,
      "ren": 669,
      "Ġinclud": 670,
      "Ġsc": 671,
      "Ġgen": 672,
      "ys": 673,
      "ple": 674,
      "Ġacc": 675,
      "cial": 676,
      "Ġ200": 677,
      "Ġact": 678,
      "Ġthrough": 679,
      "Ġour": 680,
      "ational": 681,
      "Ġbl": 682,
      "ob": 683,
      "velop": 684,
      "ject": 685,
      "Ġpeople": 686,
      "ĠUn": 687,
      "ced": 688,
      "Ġtr": 689,
      "ne": 690,
      "Ġfirst": 691,
      "Ġoff": 692,
      "Ġfe": 693,
      "rib": 694,
      "ause": 695,
      "fter": 696,
      "ful": 697,
      "stem": 698,
      "Ġtwo": 699,
      "Ġuse": 700,
      "als": 701,
      "Ġmost": 702,
      "Ġwhat": 703,
      "Ġrep": 704,
      "Ġam": 705,
      "alth": 706,
      "ics": 707,
      "Ġno": 708,
      "ative": 709,
      "ark": 710,
      "Ġif": 711,
      "ures": 712,
      "Ġem": 713,
      "ments": 714,
      "ath": 715,
      "Ġhel": 716,
      "Ġreg": 717,
      "Ġany": 718,
      "ular": 719,
      "ook": 720,
      "Ġ20": 721,
      "Ġco": 722,
      "cess": 723,
      "Ġeff": 724,
      "Ġprov": 725,
      "Ġph": 726,
      "Ġpo": 727,
      "ise": 728,
      "Ġhelp": 729,
      "ily": 730,
      "oth": 731,
      "Ġsur": 732,
      "Ġonly": 733,
      "Ġrem": 734,
      "Ġwork": 735,
      "Ġdevelop": 736,
      "ĠâĢľ": 737,
      "Ġprodu": 738,
      "Ġatt": 739,
      "Ġ-": 740,
      "Ġdec": 741,
      "Ġac": 742,
      "old": 743,
      "Ġneed": 744,
      "hen": 745,
      "int": 746,
      "ween": 747,
      "),": 748,
      "Ġexp": 749,
      "ied": 750,
      "ased": 751,
      "Ġsm": 752,
      "Ġinv": 753,
      "eth": 754,
      "uc": 755,
      "oss": 756,
      "erm": 757,
      "iss": 758,
      "Ġmany": 759,
      "Ġused": 760,
      "Ġcould": 761,
      "-@": 762,
      "Ġob": 763,
      "Ġ@-@": 764,
      "Ġadd": 765,
      "Ġbetween": 766,
      "hes": 767,
      "sel": 768,
      "fore": 769,
      "ility": 770,
      "Ġsaid": 771,
      "ade": 772,
      "ract": 773,
      "Ġfl": 774,
      "ten": 775,
      "ited": 776,
      "Ġshe": 777,
      "Ġdiffere": 778,
      "land": 779,
      "Ġpr": 780,
      "Ġ4": 781,
      "gan": 782,
      "ower": 783,
      "ting": 784,
      "Ġinst": 785,
      "Ġwhere": 786,
      "tain": 787,
      "ng": 788,
      "wn": 789,
      "Ġsystem": 790,
      "Ġinter": 791,
      "ife": 792,
      "Ġsub": 793,
      "ution": 794,
      "oy": 795,
      "Ġchild": 796,
      "ram": 797,
      "ered": 798,
      "ural": 799,
      "xt": 800,
      "ĠAs": 801,
      "Ġsupp": 802,
      "Ġear": 803,
      "ĠĠ": 804,
      "ible": 805,
      "Ġcall": 806,
      "Ġ5": 807,
      "Ġbu": 808,
      "meric": 809,
      "arch": 810,
      "Ġinf": 811,
      "ines": 812,
      "ble": 813,
      "Ġdi": 814,
      "Ġspec": 815,
      "ict": 816,
      "ists": 817,
      "ident": 818,
      "ever": 819,
      "Ġpres": 820,
      "cy": 821,
      "get": 822,
      "In": 823,
      "ool": 824,
      "ange": 825,
      "chn": 826,
      "Ġpers": 827,
      "Ġform": 828,
      "its": 829,
      "ism": 830,
      "ĠâĢĵ": 831,
      "ick": 832,
      "Ġmod": 833,
      "Ġhigh": 834,
      "Ġyears": 835,
      "Ġexam": 836,
      "Ġnum": 837,
      "Ġ18": 838,
      "ft": 839,
      "Ġtrans": 840,
      "tle": 841,
      "uch": 842,
      "vent": 843,
      "Ġexpl": 844,
      "ward": 845,
      "Ġdisc": 846,
      "'t": 847,
      "ĠThey": 848,
      "Ġwell": 849,
      "ĠAmeric": 850,
      "Ġcent": 851,
      "urn": 852,
      "Ġfound": 853,
      "aking": 854,
      "Ġafter": 855,
      "aw": 856,
      "Ġpol": 857,
      "ology": 858,
      "Ġduring": 859,
      "cept": 860,
      "Ġevery": 861,
      "ues": 862,
      "Ġworld": 863,
      "ature": 864,
      "ĠRe": 865,
      "Ġsim": 866,
      "Ġvar": 867,
      "Ġsign": 868,
      "Ġwater": 869,
      ".\"": 870,
      "ives": 871,
      "ness": 872,
      "ollow": 873,
      "Ġexper": 874,
      "ins": 875,
      "other": 876,
      "Ġeven": 877,
      "ont": 878,
      "Ġthen": 879,
      "Ġknow": 880,
      "cer": 881,
      "formation": 882,
      "Ġmed": 883,
      "Ġresp": 884,
      "Ġplay": 885,
      "ps": 886,
      "iew": 887,
      "Ġrese": 888,
      "Ġcre": 889,
      "Ġgener": 890,
      "ink": 891,
      "Ġlear": 892,
      "ĠAl": 893,
      "ved": 894,
      "Ġshould": 895,
      "Ġeach": 896,
      "Ġjust": 897,
      "Ġhealth": 898,
      "omm": 899,
      "ants": 900,
      "Ġwhile": 901,
      "Ġloc": 902,
      "Ġlong": 903,
      "Ġspe": 904,
      "stand": 905,
      "Ġgra": 906,
      "ros": 907,
      "Ġcar": 908,
      "Ġsec": 909,
      "Ġvery": 910,
      "Ġimport": 911,
      "hip": 912,
      "Ġthose": 913,
      "Ġlar": 914,
      "Ġset": 915,
      "ef": 916,
      "Ġed": 917,
      "Ġdifferent": 918,
      "chool": 919,
      "Ġ201": 920,
      "Ġmake": 921,
      "Ġcommun": 922,
      "Ġsee": 923,
      "ually": 924,
      "Ġhum": 925,
      "Ġins": 926,
      "led": 927,
      "Ġhim": 928,
      "Ġdist": 929,
      "ices": 930,
      "Ġ)": 931,
      "Ġday": 932,
      "Ġent": 933,
      "ĠWh": 934,
      "Ġke": 935,
      "Ġget": 936,
      "Ġdet": 937,
      "ically": 938,
      "Ġart": 939,
      "Ġprog": 940,
      "imes": 941,
      "gy": 942,
      "Ġpub": 943,
      "Ġhist": 944,
      "ted": 945,
      "ata": 946,
      "Ġty": 947,
      "Ġstr": 948,
      "ized": 949,
      "Ġtechn": 950,
      "ather": 951,
      "Ġbecause": 952,
      "ĠPro": 953,
      "Ġcount": 954,
      "arm": 955,
      "Ġfam": 956,
      "Ġlit": 957,
      "Ġpat": 958,
      "ving": 959,
      "ection": 960,
      "Ġfollow": 961,
      "iqu": 962,
      "ruct": 963,
      "Ġext": 964,
      "ds": 965,
      "ages": 966,
      "Ġback": 967,
      "Ġmade": 968,
      "Ġincre": 969,
      "Ġboth": 970,
      "nce": 971,
      "Ġbeing": 972,
      "Ġass": 973,
      "ck": 974,
      "iron": 975,
      "ivers": 976,
      "Ġ6": 977,
      "Ġdef": 978,
      "Ġpartic": 979,
      "Ġcomple": 980,
      "Ġtoo": 981,
      "Ġway": 982,
      "Ġeffect": 983,
      "Ġagain": 984,
      "Ġbefore": 985,
      "Ġlead": 986,
      "ety": 987,
      "gg": 988,
      "ize": 989,
      "Th": 990,
      "Ġresult": 991,
      "ty": 992,
      "Ġrequ": 993,
      "Ġmy": 994,
      "Ġprocess": 995,
      "Ġmon": 996,
      "ĠFor": 997,
      "Ġgrou": 998,
      "cient": 999,
      "vern": 1000,
      "Ġval": 1001,
      "ĠNew": 1002,
      "Ġref": 1003,
      "Ġinformation": 1004,
      "ix": 1005,
      "ĠWe": 1006,
      "ĠAr": 1007,
      "Ġmuch": 1008,
      "Ġfind": 1009,
      "Ġown": 1010,
      "any": 1011,
      "ĠAn": 1012,
      "Ġchar": 1013,
      "Ġaut": 1014,
      "..": 1015,
      "Ġdep": 1016,
      "ivid": 1017,
      "the": 1018,
      "Ġlife": 1019,
      "**": 1020,
      "Ġfun": 1021,
      "ale": 1022,
      "Ġcalled": 1023,
      "cl": 1024,
      "Ġaround": 1025,
      "ork": 1026,
      "cent": 1027,
      "Ġend": 1028,
      "Ġright": 1029,
      "Ġperson": 1030,
      "Ġcap": 1031,
      "ex": 1032,
      "Ġsmall": 1033,
      "Ġsom": 1034,
      "Ġgrow": 1035,
      "Ġfact": 1036,
      "ished": 1037,
      "orn": 1038,
      "Ġsk": 1039,
      "Ġshow": 1040,
      "con": 1041,
      "ases": 1042,
      "iel": 1043,
      "Ġsame": 1044,
      "--------": 1045,
      "ars": 1046,
      "io": 1047,
      "inal": 1048,
      "Ġserv": 1049,
      "ves": 1050,
      "ave": 1051,
      "Ġusing": 1052,
      "rop": 1053,
      "Ġcur": 1054,
      "Ġmem": 1055,
      "Ġwithin": 1056,
      "ement": 1057,
      "Ġpop": 1058,
      ",\"": 1059,
      "ute": 1060,
      "und": 1061,
      "Ġread": 1062,
      "Ġbr": 1063,
      "Ġmin": 1064,
      "ody": 1065,
      "Ġdid": 1066,
      "ĠHow": 1067,
      "ient": 1068,
      "Ġwrit": 1069,
      "Ġdesign": 1070,
      "Ġmain": 1071,
      "ince": 1072,
      "dition": 1073,
      "ined": 1074,
      "ven": 1075,
      "ral": 1076,
      "Ġstudy": 1077,
      "Ġthree": 1078,
      "000": 1079,
      "read": 1080,
      "ax": 1081,
      "irect": 1082,
      "Ġdown": 1083,
      "Ġlevel": 1084,
      "ared": 1085,
      "oh": 1086,
      "Ġfood": 1087,
      "Ġstart": 1088,
      "eng": 1089,
      "Ġcontin": 1090,
      "ier": 1091,
      "Ġser": 1092,
      "Ġdoes": 1093,
      "Ġprovid": 1094,
      "viron": 1095,
      "ands": 1096,
      "Ġav": 1097,
      "Ġpower": 1098,
      "Ġest": 1099,
      "Ġbel": 1100,
      "Ġunderstand": 1101,
      "Ġgl": 1102,
      "ah": 1103,
      "ters": 1104,
      "self": 1105,
      "Ġcare": 1106,
      "Ġoften": 1107,
      "Ġ7": 1108,
      "air": 1109,
      "ality": 1110,
      "Ġche": 1111,
      "Ġvis": 1112,
      "âĢĶ": 1113,
      "ross": 1114,
      "Ġimportant": 1115,
      "akes": 1116,
      "way": 1117,
      "Ġgood": 1118,
      "Ġnow": 1119,
      "Ġproble": 1120,
      "Ġchildren": 1121,
      "Ġocc": 1122,
      "Ġschool": 1123,
      "19": 1124,
      "ential": 1125,
      "ock": 1126,
      "eg": 1127,
      "Ġdata": 1128,
      "Ġthough": 1129,
      "itions": 1130,
      "ien": 1131,
      "imate": 1132,
      "ĠSp": 1133,
      "Ġorgan": 1134,
      "ional": 1135,
      "Ġmight": 1136,
      "Ġsol": 1137,
      "Ġconsid": 1138,
      "ury": 1139,
      "Ġincluding": 1140,
      "Ġnumber": 1141,
      "Ġprot": 1142,
      "Ġsupport": 1143,
      "ron": 1144,
      "ĠInd": 1145,
      "ĠShe": 1146,
      "ering": 1147,
      "Ġtest": 1148,
      "Ġop": 1149,
      "ected": 1150,
      "Ġposs": 1151,
      "ĠBut": 1152,
      "rol": 1153,
      "uss": 1154,
      "Ġadv": 1155,
      "outh": 1156,
      "Ġ10": 1157,
      "Ġwant": 1158,
      "Ġtake": 1159,
      "Ġless": 1160,
      "Ġallow": 1161,
      "Ġtreat": 1162,
      "Ġ199": 1163,
      "ĠIf": 1164,
      "Ġcor": 1165,
      "Ġmat": 1166,
      "Ġgu": 1167,
      "day": 1168,
      "iversity": 1169,
      "ĠSo": 1170,
      "ergy": 1171,
      "||": 1172,
      "Ġ8": 1173,
      "ital": 1174,
      "Ġbuild": 1175,
      "omen": 1176,
      "up": 1177,
      "Ġclass": 1178,
      "Ġris": 1179,
      "vironment": 1180,
      "ividual": 1181,
      "Ġhuman": 1182,
      "cing": 1183,
      "Ġequ": 1184,
      "ĠThese": 1185,
      "Ġexample": 1186,
      "Ġpract": 1187,
      "Ġca": 1188,
      "Ġplan": 1189,
      "rent": 1190,
      "ĠSe": 1191,
      "Ġstudents": 1192,
      "Ġknown": 1193,
      "ining": 1194,
      "Ġconf": 1195,
      "ories": 1196,
      "Ġcult": 1197,
      "els": 1198,
      "ull": 1199,
      "ĠCon": 1200,
      "Ġret": 1201,
      "Ġmust": 1202,
      "ired": 1203,
      "Ġ9": 1204,
      ".,": 1205,
      "ĠAmerican": 1206,
      "orth": 1207,
      "ouse": 1208,
      "ets": 1209,
      "ulation": 1210,
      "Ġeng": 1211,
      "Ġlarge": 1212,
      "ran": 1213,
      "ern": 1214,
      "Ġconst": 1215,
      "aj": 1216,
      "Ġgovern": 1217,
      "acter": 1218,
      "ĠAnd": 1219,
      "riend": 1220,
      "Ġindividual": 1221,
      "ash": 1222,
      "ources": 1223,
      "iving": 1224,
      "ton": 1225,
      "oun": 1226,
      "ains": 1227,
      "ason": 1228,
      "Ġelect": 1229,
      "hers": 1230,
      "Ġresearch": 1231,
      "ĠAd": 1232,
      "ĠIs": 1233,
      "ision": 1234,
      "por": 1235,
      "Ġbo": 1236,
      "com": 1237,
      "bers": 1238,
      "raph": 1239,
      "ization": 1240,
      "Ġcle": 1241,
      "der": 1242,
      "ĠDe": 1243,
      "Ġbeh": 1244,
      "Ġlet": 1245,
      "Ġappro": 1246,
      "Ġreport": 1247,
      "Ġhapp": 1248,
      "Ġcell": 1249,
      "Ġgreat": 1250,
      "Ġpublic": 1251,
      "Ġlearn": 1252,
      "Ġactiv": 1253,
      "oms": 1254,
      "ĠYou": 1255,
      "Ġdise": 1256,
      "Ġmet": 1257,
      "pect": 1258,
      "Ġcommon": 1259,
      "osed": 1260,
      "Ġredu": 1261,
      "Ġsever": 1262,
      "pr": 1263,
      "ug": 1264,
      "az": 1265,
      "Ġanother": 1266,
      "angu": 1267,
      "Ġgre": 1268,
      "Ġprom": 1269,
      "ination": 1270,
      "Ġdirect": 1271,
      "ĠBy": 1272,
      "Ġcour": 1273,
      "Ġdel": 1274,
      "ger": 1275,
      "Ġdem": 1276,
      "Ġmus": 1277,
      "ccess": 1278,
      "soci": 1279,
      "Ġquest": 1280,
      "Ġaff": 1281,
      "cience": 1282,
      "iod": 1283,
      "Ġstill": 1284,
      "Ġstate": 1285,
      "ently": 1286,
      "rodu": 1287,
      "Ġlight": 1288,
      "Ġplace": 1289,
      "line": 1290,
      "Ġpot": 1291,
      "Ġident": 1292,
      "ense": 1293,
      "Ġpos": 1294,
      "gen": 1295,
      "Ġpass": 1296,
      "man": 1297,
      "less": 1298,
      "conom": 1299,
      "Ġele": 1300,
      "Ġiss": 1301,
      "Ġsl": 1302,
      "Ġbody": 1303,
      "Ġide": 1304,
      "Ġseveral": 1305,
      "aterial": 1306,
      "ĠEng": 1307,
      "Ġdesc": 1308,
      "lish": 1309,
      "Ġreal": 1310,
      "Ġprof": 1311,
      "Ġlittle": 1312,
      "til": 1313,
      "Ġinvol": 1314,
      "Wh": 1315,
      "ĠAt": 1316,
      "ording": 1317,
      "ived": 1318,
      "Ġtyp": 1319,
      "Ġnear": 1320,
      "Ġarea": 1321,
      "Ġagainst": 1322,
      "Ġeduc": 1323,
      "rist": 1324,
      "to": 1325,
      "erest": 1326,
      "Ġsecond": 1327,
      "ries": 1328,
      "ked": 1329,
      "Ġair": 1330,
      "ield": 1331,
      "ĠUnited": 1332,
      "eral": 1333,
      "Ġlook": 1334,
      "ians": 1335,
      "Ġbelie": 1336,
      "de": 1337,
      "iven": 1338,
      "Ġchang": 1339,
      "amp": 1340,
      "Ġfriend": 1341,
      "Ġoper": 1342,
      "Ġcreat": 1343,
      "Ġwithout": 1344,
      "view": 1345,
      "ner": 1346,
      "Ġdevelopment": 1347,
      "ior": 1348,
      "Ġsignific": 1349,
      "ological": 1350,
      "rain": 1351,
      "ret": 1352,
      "Ġearly": 1353,
      "Ġpresent": 1354,
      "Ġcaus": 1355,
      "Ġfin": 1356,
      "Ġopen": 1357,
      "Ġhistory": 1358,
      "Ġpar": 1359,
      "ead": 1360,
      "ability": 1361,
      "ĠEx": 1362,
      "iver": 1363,
      "Ġfew": 1364,
      "Ġhome": 1365,
      "Ġtem": 1366,
      "Ġgroup": 1367,
      "ration": 1368,
      "ium": 1369,
      "ember": 1370,
      "Ġmill": 1371,
      "ilar": 1372,
      "Ġbre": 1373,
      "Ġmil": 1374,
      "Ġinclude": 1375,
      "Ġenvironment": 1376,
      "ĠPh": 1377,
      "atural": 1378,
      "Ġopp": 1379,
      "ames": 1380,
      "ĠUniversity": 1381,
      ".âĢĿ": 1382,
      "Ġstand": 1383,
      "Ġperform": 1384,
      "ĠThere": 1385,
      "ience": 1386,
      "agn": 1387,
      "Ġcer": 1388,
      "ify": 1389,
      "Ġphys": 1390,
      "par": 1391,
      "itive": 1392,
      "Ġmar": 1393,
      "Ġold": 1394,
      "be": 1395,
      "Ġanim": 1396,
      "This": 1397,
      "Ġpur": 1398,
      "Ġtoget": 1399,
      "Ġtogether": 1400,
      "Ġorig": 1401,
      "ats": 1402,
      "lished": 1403,
      "Ġsit": 1404,
      "ething": 1405,
      "Ġamong": 1406,
      "Ġfac": 1407,
      "ified": 1408,
      "Ġhand": 1409,
      "Ġel": 1410,
      "Ġsays": 1411,
      "olution": 1412,
      "ids": 1413,
      "Ġimm": 1414,
      "ograph": 1415,
      "Ġve": 1416,
      "ples": 1417,
      "gin": 1418,
      "Ġeas": 1419,
      "Ġsym": 1420,
      "iness": 1421,
      "Ġspecies": 1422,
      "Ġwar": 1423,
      "Ġbetter": 1424,
      "Ġmaterial": 1425,
      "ĠRes": 1426,
      "Ġenergy": 1427,
      "ethod": 1428,
      "Ġfamily": 1429,
      "ption": 1430,
      "Ġblood": 1431,
      "uro": 1432,
      "Ġauth": 1433,
      "ental": 1434,
      "Ġes": 1435,
      "Ġfore": 1436,
      "Ġland": 1437,
      "Ġchange": 1438,
      "Ġmove": 1439,
      "Ġleg": 1440,
      "ĠHowever": 1441,
      "Ġrest": 1442,
      "Ġinterest": 1443,
      "bs": 1444,
      "here": 1445,
      "ĠSh": 1446,
      "Ġimpro": 1447,
      "Ġbecome": 1448,
      "ĠPl": 1449,
      "ling": 1450,
      "Ġproject": 1451,
      "lu": 1452,
      "Ġ[": 1453,
      "Ġconn": 1454,
      "arent": 1455,
      "Ġprogram": 1456,
      "Ġrepres": 1457,
      "Ġ0": 1458,
      "Ġsomething": 1459,
      "ajor": 1460,
      "ission": 1461,
      "20": 1462,
      "Ġfour": 1463,
      "ards": 1464,
      "Ġlangu": 1465,
      "urther": 1466,
      "me": 1467,
      "ĠWhen": 1468,
      "over": 1469,
      "ĠCol": 1470,
      "ances": 1471,
      "Ġbro": 1472,
      "Ġdon": 1473,
      "ĠComm": 1474,
      "Ġlast": 1475,
      "ways": 1476,
      "though": 1477,
      "Ġtre": 1478,
      "Ġbased": 1479,
      "Ġalong": 1480,
      "Ġeconom": 1481,
      "Ġthings": 1482,
      "Ġvarious": 1483,
      "Ġrun": 1484,
      "Ġcrit": 1485,
      "Ġbir": 1486,
      "ĠâĢĶ": 1487,
      "Ġlater": 1488,
      "Ġvari": 1489,
      "Ġ15": 1490,
      "ĠCom": 1491,
      "Ġcontrol": 1492,
      "Ġothers": 1493,
      "Ġuntil": 1494,
      "ised": 1495,
      "Ġlaw": 1496,
      "Ġrele": 1497,
      "Ġmeas": 1498,
      "Ġfeel": 1499,
      "Ġ&": 1500,
      "Ġter": 1501,
      "Ġhead": 1502,
      "Ġupon": 1503,
      "oring": 1504,
      "Ġbas": 1505,
      "Ġscient": 1506,
      "ĠStates": 1507,
      "Ġbest": 1508,
      "Ġoccur": 1509,
      "Ġmark": 1510,
      "ĠEn": 1511,
      "ĠOn": 1512,
      "Ġname": 1513,
      "Ġlist": 1514,
      "Ġanal": 1515,
      "abor": 1516,
      "Ġsuccess": 1517,
      "Ġant": 1518,
      "ique": 1519,
      "atic": 1520,
      "orts": 1521,
      "ote": 1522,
      "Ġpercent": 1523,
      "ode": 1524,
      "Ġfollowing": 1525,
      "Ġsince": 1526,
      "Ġpain": 1527,
      "ĠCl": 1528,
      "Ġparticular": 1529,
      "Ġgovernment": 1530,
      "ogn": 1531,
      "Ġproduct": 1532,
      "Ġobject": 1533,
      "ailable": 1534,
      "my": 1535,
      "Ġdisease": 1536,
      "Ġperiod": 1537,
      "Ġhere": 1538,
      "ention": 1539,
      "Ġmean": 1540,
      "10": 1541,
      "Ġlocal": 1542,
      "Ġmanag": 1543,
      "Ġsaf": 1544,
      "Ġben": 1545,
      "Ġmethod": 1546,
      "Ġsocial": 1547,
      "Ġrece": 1548,
      "Ġrecord": 1549,
      "ource": 1550,
      "arc": 1551,
      "Ġlim": 1552,
      "ots": 1553,
      "Ġsignificant": 1554,
      "ĠTo": 1555,
      "Ġpress": 1556,
      "Ġlow": 1557,
      "Ġkeep": 1558,
      "osp": 1559,
      "Ġspecial": 1560,
      "ĠChrist": 1561,
      "Ġpoint": 1562,
      "Ġtop": 1563,
      "ides": 1564,
      "Ġfil": 1565,
      "Ġchall": 1566,
      "ĠCan": 1567,
      "Ġsay": 1568,
      "Ġareas": 1569,
      "idence": 1570,
      "Ġcond": 1571,
      "Ġbus": 1572,
      "ained": 1573,
      "ills": 1574,
      "Ġproper": 1575,
      "ohn": 1576,
      "Ġrisk": 1577,
      "Ġprop": 1578,
      "Ġhy": 1579,
      "Ġmajor": 1580,
      "ware": 1581,
      "ĠWor": 1582,
      "Ġ17": 1583,
      "Ġenc": 1584,
      "Ġpri": 1585,
      "Ġwomen": 1586,
      "Ġtri": 1587,
      "Ġ12": 1588,
      "ocus": 1589,
      "Ġprovide": 1590,
      "ank": 1591,
      "Ġcreate": 1592,
      "ued": 1593,
      "Ġdue": 1594,
      "sy": 1595,
      "Ġdev": 1596,
      "Ġbig": 1597,
      "Ġ$": 1598,
      "ĠBe": 1599,
      "irc": 1600,
      "ĠOne": 1601,
      "Ġsing": 1602,
      "ended": 1603,
      "Ġmov": 1604,
      "app": 1605,
      "ients": 1606,
      "ĠCent": 1607,
      "Ġthink": 1608,
      "Ġmeans": 1609,
      "Ġdra": 1610,
      "ole": 1611,
      "Ġtimes": 1612,
      "Ġappear": 1613,
      "ray": 1614,
      "ina": 1615,
      "Ġstruct": 1616,
      "Ġmaking": 1617,
      "Ġview": 1618,
      "ĠAll": 1619,
      "ĠNational": 1620,
      "ored": 1621,
      "Ġcharacter": 1622,
      "Ġcurrent": 1623,
      "of": 1624,
      "ĠQ": 1625,
      "ape": 1626,
      "ane": 1627,
      "ged": 1628,
      "Ġfunction": 1629,
      "ably": 1630,
      "Ġavailable": 1631,
      "Ġfre": 1632,
      "wards": 1633,
      "Ġaddition": 1634,
      "Ġ16": 1635,
      "Ġmen": 1636,
      "hern": 1637,
      "ĠZ": 1638,
      "side": 1639,
      "Ġturn": 1640,
      "Ġhig": 1641,
      "Ġacross": 1642,
      "ggest": 1643,
      "Ġcertain": 1644,
      "elf": 1645,
      "ication": 1646,
      "Ġcentury": 1647,
      "Ġbecame": 1648,
      "Ġheart": 1649,
      "Ġcomb": 1650,
      "Ġnatural": 1651,
      "ĠTe": 1652,
      "Ġput": 1653,
      "ope": 1654,
      "ooks": 1655,
      "ones": 1656,
      "Ġnon": 1657,
      "Ġseem": 1658,
      "Ġdiff": 1659,
      "une": 1660,
      "Ġsw": 1661,
      "Ġsystems": 1662,
      "ĠLe": 1663,
      "Ġyoung": 1664,
      "Ġcome": 1665,
      "ator": 1666,
      "Ġlearning": 1667,
      "Ġpossible": 1668,
      "by": 1669,
      "Ġsimilar": 1670,
      "Ġstat": 1671,
      "ribut": 1672,
      "Ġvol": 1673,
      "Ġcomput": 1674,
      "ring": 1675,
      "Ġaccess": 1676,
      "Ġcal": 1677,
      "Ġexist": 1678,
      "ateg": 1679,
      "Ġpolit": 1680,
      "Ġbi": 1681,
      "Ġsoci": 1682,
      "urope": 1683,
      "Ġintern": 1684,
      "ox": 1685,
      "Ġmult": 1686,
      "Ġdiscuss": 1687,
      "Ġsuggest": 1688,
      ",âĢĿ": 1689,
      "ales": 1690,
      "uture": 1691,
      "Ġprevent": 1692,
      "Ġaway": 1693,
      "ris": 1694,
      "ument": 1695,
      "Ġobs": 1696,
      "ĠOr": 1697,
      "Ġfar": 1698,
      "ww": 1699,
      "As": 1700,
      "Ġfocus": 1701,
      "use": 1702,
      "ively": 1703,
      "Ġnext": 1704,
      "Ġstrong": 1705,
      "Ġline": 1706,
      "ĠGod": 1707,
      "Ġgiven": 1708,
      "Ġwee": 1709,
      "ortun": 1710,
      "Ġess": 1711,
      "St": 1712,
      "Ġrepresent": 1713,
      "Ġens": 1714,
      "oid": 1715,
      "idd": 1716,
      "Ġassoci": 1717,
      "Ġteam": 1718,
      "rap": 1719,
      "face": 1720,
      "Ġbook": 1721,
      "ik": 1722,
      "ols": 1723,
      "iting": 1724,
      "Ġ198": 1725,
      "Ġcost": 1726,
      "It": 1727,
      "Ġdescrib": 1728,
      "ĠJohn": 1729,
      "ression": 1730,
      "aster": 1731,
      "oph": 1732,
      "12": 1733,
      "Ġaddress": 1734,
      "Ġhard": 1735,
      "aps": 1736,
      "Ġrole": 1737,
      "ĠMay": 1738,
      "Ġestab": 1739,
      "ths": 1740,
      "atch": 1741,
      "ilities": 1742,
      "ĠEurope": 1743,
      "ither": 1744,
      "aring": 1745,
      "ately": 1746,
      "ploy": 1747,
      "Ġill": 1748,
      "ĠWar": 1749,
      "Ġshort": 1750,
      "Ġcause": 1751,
      "ĠBrit": 1752,
      "ending": 1753,
      "ĠMed": 1754,
      "ĠUS": 1755,
      "ert": 1756,
      "Ġcountry": 1757,
      "cially": 1758,
      "aken": 1759,
      "aces": 1760,
      "Ġ:": 1761,
      "ĠThat": 1762,
      "etimes": 1763,
      "Ġrad": 1764,
      "Ġlanguage": 1765,
      "Ġconsider": 1766,
      "asing": 1767,
      "mber": 1768,
      "ĠAf": 1769,
      "Ġspecific": 1770,
      "Ġwind": 1771,
      "Ġgr": 1772,
      "Ġtreatment": 1773,
      "ĠEar": 1774,
      "amed": 1775,
      "urch": 1776,
      "Ġproblems": 1777,
      "Ġdeterm": 1778,
      "ured": 1779,
      "Ġage": 1780,
      "enn": 1781,
      "Ġconcer": 1782,
      "Ġcase": 1783,
      "usion": 1784,
      "Ġcomplex": 1785,
      "ann": 1786,
      "âĢľ": 1787,
      "oll": 1788,
      "br": 1789,
      "Ġhistor": 1790,
      "vious": 1791,
      "Ġimpact": 1792,
      "min": 1793,
      "put": 1794,
      "Ġorder": 1795,
      "ights": 1796,
      "Ġcommunity": 1797,
      "Ġlevels": 1798,
      "Ġable": 1799,
      "Ġdri": 1800,
      "val": 1801,
      "Ġer": 1802,
      "Ġindust": 1803,
      "alk": 1804,
      "Ġinflu": 1805,
      "Ġpast": 1806,
      "Ġmillion": 1807,
      "ches": 1808,
      "stit": 1809,
      "Ġapplic": 1810,
      "ators": 1811,
      "Ġalways": 1812,
      "Ġrespons": 1813,
      "oura": 1814,
      "lection": 1815,
      "Ġspace": 1816,
      "Ġet": 1817,
      "Ġtry": 1818,
      "Ġfree": 1819,
      "ges": 1820,
      "Ġkind": 1821,
      "port": 1822,
      "Ġfuture": 1823,
      "Ġflow": 1824,
      "Ġleft": 1825,
      "aut": 1826,
      "Ġauthor": 1827,
      "Ġcity": 1828,
      "ledge": 1829,
      "18": 1830,
      "icult": 1831,
      "atory": 1832,
      "ĠIm": 1833,
      "aper": 1834,
      "ences": 1835,
      "ĠWorld": 1836,
      "Ġinvest": 1837,
      "acy": 1838,
      "izing": 1839,
      "Ġcells": 1840,
      "Ġtru": 1841,
      "Ġtoday": 1842,
      "Ġnecess": 1843,
      "Ġnever": 1844,
      "Ġwhy": 1845,
      "Ġbenef": 1846,
      "Ġunderstanding": 1847,
      "Ġpost": 1848,
      "etic": 1849,
      "isc": 1850,
      "Ġfurther": 1851,
      "ĠĠĠĠ": 1852,
      "oot": 1853,
      "Ġrelations": 1854,
      "Ġhaving": 1855,
      "ibr": 1856,
      "Ġcirc": 1857,
      "ĠWhat": 1858,
      "ery": 1859,
      "oint": 1860,
      "apter": 1861,
      "Ġtype": 1862,
      "Ġprofess": 1863,
      "Ġkey": 1864,
      "Ġproblem": 1865,
      "ĠSc": 1866,
      "att": 1867,
      "icle": 1868,
      "atures": 1869,
      "ially": 1870,
      "work": 1871,
      "istic": 1872,
      "alf": 1873,
      "ober": 1874,
      "Ġstory": 1875,
      "hem": 1876,
      "Ġ;": 1877,
      "oman": 1878,
      "Ġdam": 1879,
      "Ġside": 1880,
      "Ġworks": 1881,
      "Ġconditions": 1882,
      "af": 1883,
      "selves": 1884,
      "ley": 1885,
      "ĠGen": 1886,
      "Ġdeath": 1887,
      "Ġbegan": 1888,
      "Ġever": 1889,
      "Ġbehav": 1890,
      "50": 1891,
      "obal": 1892,
      "Ġreturn": 1893,
      "Ġbegin": 1894,
      "mit": 1895,
      "Ġground": 1896,
      "Ġtradition": 1897,
      "ference": 1898,
      "Ġhowever": 1899,
      "thing": 1900,
      "Ġplant": 1901,
      "ĠWith": 1902,
      "Ġla": 1903,
      "Ġopt": 1904,
      "inci": 1905,
      "Ġcame": 1906,
      "ctor": 1907,
      "Ġcourse": 1908,
      "Ġsound": 1909,
      "ĠGerm": 1910,
      "ney": 1911,
      "oad": 1912,
      "ĠMan": 1913,
      "Ġpotential": 1914,
      "Ġrelig": 1915,
      "aim": 1916,
      "ipp": 1917,
      "Ġusually": 1918,
      "ĠMar": 1919,
      "ilt": 1920,
      "Ġresources": 1921,
      "Ġmom": 1922,
      "Ġdays": 1923,
      "Ġclear": 1924,
      "Ġresearc": 1925,
      "Ġthought": 1926,
      "yn": 1927,
      "for": 1928,
      "Ġ197": 1929,
      "Ġinit": 1930,
      "ruction": 1931,
      "erc": 1932,
      "Ġcollect": 1933,
      "Ġprim": 1934,
      "ĠSome": 1935,
      "ivity": 1936,
      "ream": 1937,
      "ĠBl": 1938,
      "Ġexperien": 1939,
      "Ġeducation": 1940,
      "ush": 1941,
      "ours": 1942,
      "oon": 1943,
      "lement": 1944,
      "We": 1945,
      "not": 1946,
      "Ġpolic": 1947,
      "Ġresults": 1948,
      "Ġey": 1949,
      "illed": 1950,
      "reen": 1951,
      "tt": 1952,
      "aves": 1953,
      "Ġfund": 1954,
      "ĠCar": 1955,
      "ym": 1956,
      "Ġfriends": 1957,
      "Ġbusiness": 1958,
      "Ġvir": 1959,
      "most": 1960,
      "Ġgoing": 1961,
      "Ġchalleng": 1962,
      "Ġclose": 1963,
      "Ġmodern": 1964,
      "Ġconcept": 1965,
      "Ġwords": 1966,
      "wh": 1967,
      "Ġwhether": 1968,
      "Ġpred": 1969,
      "pecially": 1970,
      "Ġtook": 1971,
      "omes": 1972,
      "Ġoffic": 1973,
      "ird": 1974,
      "'re": 1975,
      "Ã©": 1976,
      "Ġrecogn": 1977,
      "Ġabove": 1978,
      "Ġamount": 1979,
      "ee": 1980,
      "ibility": 1981,
      "Ġfull": 1982,
      "overed": 1983,
      "ler": 1984,
      "Ġdr": 1985,
      "Ġchanges": 1986,
      "ĠAfric": 1987,
      "----------------": 1988,
      "augh": 1989,
      "ency": 1990,
      "Ġsingle": 1991,
      "Ġevent": 1992,
      "Ġpopulation": 1993,
      "Ġdifficult": 1994,
      "cle": 1995,
      "Ġthroughout": 1996,
      "Ġmot": 1997,
      "âĢĵ": 1998,
      "Ġways": 1999,
      "Ġtemper": 2000,
      "Ġtechnology": 2001,
      "Ġworking": 2002,
      "Ġstep": 2003,
      "Ġgive": 2004,
      "ĠAfter": 2005,
      "Ġmembers": 2006,
      "Ġscience": 2007,
      "ffic": 2008,
      "Ġmaintain": 2009,
      "Ġterm": 2010,
      "Ġenough": 2011,
      "ĠNorth": 2012,
      "Ġcancer": 2013,
      "ints": 2014,
      "Ġann": 2015,
      "let": 2016,
      "ivil": 2017,
      "Ġsum": 2018,
      "Ġgrowth": 2019,
      "iction": 2020,
      "Ġhouse": 2021,
      "Ġcomplete": 2022,
      "Ġmusic": 2023,
      "Ġgroups": 2024,
      "Ġbuilding": 2025,
      "Ġexperience": 2026,
      "ĠGe": 2027,
      "ung": 2028,
      "Ġself": 2029,
      "Ġ11": 2030,
      "iam": 2031,
      "sw": 2032,
      "What": 2033,
      "An": 2034,
      "ĠÐ": 2035,
      "Ġparent": 2036,
      "Ġmeet": 2037,
      "##": 2038,
      "olic": 2039,
      "Ġissues": 2040,
      "Ġstudies": 2041,
      "Ġprotect": 2042,
      "Ġ--": 2043,
      "Ġcoll": 2044,
      "verse": 2045,
      "asc": 2046,
      "Ġexc": 2047,
      "Ġ14": 2048,
      "Ġparticip": 2049,
      "ification": 2050,
      "Ġhigher": 2051,
      "Ġcountries": 2052,
      "Ġfive": 2053,
      "Ġsaw": 2054,
      "Ġnet": 2055,
      "inking": 2056,
      "ications": 2057,
      "Ġcr": 2058,
      "Ġconsum": 2059,
      "ires": 2060,
      "Ġgame": 2061,
      "Ġaccount": 2062,
      "ae": 2063,
      "Ġ13": 2064,
      "Ġleast": 2065,
      "Ġred": 2066,
      "ĠAust": 2067,
      "ging": 2068,
      "ened": 2069,
      "ĠHealth": 2070,
      "Ġtypes": 2071,
      "lands": 2072,
      "Ġseen": 2073,
      "ourn": 2074,
      "Ġlikely": 2075,
      "Ġhold": 2076,
      "ules": 2077,
      "Ġfield": 2078,
      "Ġz": 2079,
      "now": 2080,
      "Ġsurface": 2081,
      "ĠAmerica": 2082,
      "Ġindividuals": 2083,
      "sp": 2084,
      "Ġemer": 2085,
      "onst": 2086,
      "Ġespecially": 2087,
      "ips": 2088,
      "iet": 2089,
      "Ġbar": 2090,
      "med": 2091,
      "ott": 2092,
      "Ġliving": 2093,
      "chie": 2094,
      "ĠSouth": 2095,
      "elt": 2096,
      "ptoms": 2097,
      "Ġarg": 2098,
      "Ġport": 2099,
      "ĠCal": 2100,
      "ooking": 2101,
      "Ġunique": 2102,
      "Ġ30": 2103,
      "yl": 2104,
      "Ġrepl": 2105,
      "Ġincrease": 2106,
      "Ġrequire": 2107,
      "Ġmakes": 2108,
      "Ġrather": 2109,
      "sequ": 2110,
      "Ġknowledge": 2111,
      "Ġgeneral": 2112,
      "Ġrange": 2113,
      "rug": 2114,
      "Ġneeds": 2115,
      "``": 2116,
      "If": 2117,
      "ables": 2118,
      "ĠEm": 2119,
      "ublic": 2120,
      "200": 2121,
      "Ġnorm": 2122,
      "rams": 2123,
      "duct": 2124,
      "oney": 2125,
      "Ġep": 2126,
      "Ġvi": 2127,
      "ĠYork": 2128,
      "lying": 2129,
      "Ġarch": 2130,
      "Ġproduction": 2131,
      "ided": 2132,
      "ections": 2133,
      "apt": 2134,
      "Ġnational": 2135,
      "ĠX": 2136,
      "ĠIntern": 2137,
      "Ġanimals": 2138,
      "Ġ194": 2139,
      "Ġpressure": 2140,
      "Ġquestions": 2141,
      "Ġbrain": 2142,
      "Ġtext": 2143,
      "atives": 2144,
      "Ġcontain": 2145,
      "agine": 2146,
      "earch": 2147,
      "ĠAm": 2148,
      "Ġ196": 2149,
      "Ġsun": 2150,
      "Ġri": 2151,
      "Ġemb": 2152,
      "Ġresearchers": 2153,
      "Ġnature": 2154,
      "ores": 2155,
      "Ġdest": 2156,
      "Ġrelationship": 2157,
      "artment": 2158,
      "ched": 2159,
      "eter": 2160,
      "Ġregard": 2161,
      "Ġfamil": 2162,
      "ma": 2163,
      "ĠHist": 2164,
      "Ġprinci": 2165,
      "Ġsite": 2166,
      "ites": 2167,
      "Ġsens": 2168,
      "Ġphysical": 2169,
      "aced": 2170,
      "Ġobserv": 2171,
      "II": 2172,
      "Ġcreated": 2173,
      "Ġimprove": 2174,
      "sych": 2175,
      "go": 2176,
      "rict": 2177,
      "ĠGu": 2178,
      "verage": 2179,
      "Ch": 2180,
      "Ġvers": 2181,
      "aries": 2182,
      "ĠHis": 2183,
      "eb": 2184,
      "ising": 2185,
      "Ġexplore": 2186,
      "Ġfr": 2187,
      "Ġwent": 2188,
      "ĠDep": 2189,
      "Ġaccording": 2190,
      "irl": 2191,
      "Ġsometimes": 2192,
      "Ġteac": 2193,
      "fully": 2194,
      "rel": 2195,
      "Ġmind": 2196,
      "Ġliter": 2197,
      "ried": 2198,
      "Ġonce": 2199,
      "ĠGo": 2200,
      "Ġtell": 2201,
      "Ġfall": 2202,
      "Ġvalue": 2203,
      "Ġpolitical": 2204,
      "ĠRep": 2205,
      "Ġdeveloped": 2206,
      "Ġphot": 2207,
      "Ġnamed": 2208,
      "Ġlive": 2209,
      "11": 2210,
      "Ġopportun": 2211,
      "Ġeither": 2212,
      "Ġeffects": 2213,
      "Ġseason": 2214,
      "ned": 2215,
      "Ġdeb": 2216,
      "ript": 2217,
      "Ġheav": 2218,
      "Ġdetail": 2219,
      "inary": 2220,
      "Ġevidence": 2221,
      "\".": 2222,
      "Ġdeep": 2223,
      "urb": 2224,
      "Ġmass": 2225,
      "Ġchem": 2226,
      "Ġlower": 2227,
      "aging": 2228,
      "Ġassociated": 2229,
      "like": 2230,
      "Ġprob": 2231,
      "Ġmedical": 2232,
      "ils": 2233,
      "acks": 2234,
      "Ġcases": 2235,
      "estern": 2236,
      "Ġwin": 2237,
      "anced": 2238,
      "Ġtaken": 2239,
      "roll": 2240,
      "Ġquestion": 2241,
      "Ġhalf": 2242,
      "Ġactivities": 2243,
      "ĠBritish": 2244,
      "To": 2245,
      "Ġstarted": 2246,
      "aching": 2247,
      "acc": 2248,
      "Ġachie": 2249,
      "Ġquick": 2250,
      "Ġseries": 2251,
      "eds": 2252,
      "ĠEnglish": 2253,
      "Ġdig": 2254,
      "reg": 2255,
      "Ġpattern": 2256,
      "Ġintrodu": 2257,
      "Ġmodel": 2258,
      "ĠNe": 2259,
      "ready": 2260,
      "Ġsuper": 2261,
      "For": 2262,
      "Ġentire": 2263,
      "ĠEarth": 2264,
      "uel": 2265,
      "Ġflu": 2266,
      "Ġplants": 2267,
      "utions": 2268,
      "ĠState": 2269,
      "Ġthemselves": 2270,
      "ysis": 2271,
      "ĠJew": 2272,
      "Ġcut": 2273,
      "itary": 2274,
      "AS": 2275,
      "sh": 2276,
      "ulations": 2277,
      "Ġfrequ": 2278,
      "Ġfig": 2279,
      "Ġ|": 2280,
      "Ġdoc": 2281,
      "Ġengine": 2282,
      "Ġservices": 2283,
      "Ġdom": 2284,
      "Ġsitu": 2285,
      "Ġsymptoms": 2286,
      "Ġ/": 2287,
      "Ġtot": 2288,
      "attle": 2289,
      "ison": 2290,
      "Ġlay": 2291,
      "ĠCo": 2292,
      "Ġpublished": 2293,
      "Ð¾": 2294,
      "ĠStud": 2295,
      "Ġtowards": 2296,
      "Ġdeg": 2297,
      "Ġfail": 2298,
      "Ġemploy": 2299,
      "Ġsubject": 2300,
      "Ġyet": 2301,
      "...": 2302,
      "Ġpopular": 2303,
      "epend": 2304,
      "Ġpersonal": 2305,
      "Ġsure": 2306,
      "Ġpatients": 2307,
      "ached": 2308,
      "Ġevents": 2309,
      "Ġindic": 2310,
      "ends": 2311,
      "Ġparts": 2312,
      "Ġneeded": 2313,
      "ns": 2314,
      "ony": 2315,
      "iques": 2316,
      "ows": 2317,
      "Ġessential": 2318,
      "ops": 2319,
      "iation": 2320,
      "30": 2321,
      "Ġmor": 2322,
      "Ġabs": 2323,
      "Ġsent": 2324,
      "empt": 2325,
      "Ġsimple": 2326,
      "imately": 2327,
      "Ġcy": 2328,
      "oved": 2329,
      "fact": 2330,
      "Ġreally": 2331,
      "iment": 2332,
      "Ġsepar": 2333,
      "Ġsix": 2334,
      "pro": 2335,
      "Ġalready": 2336,
      "leep": 2337,
      "ĠAb": 2338,
      "Ġblack": 2339,
      "itud": 2340,
      "Ġstates": 2341,
      "There": 2342,
      "One": 2343,
      "ask": 2344,
      "chan": 2345,
      "ystem": 2346,
      "Ġrespect": 2347,
      "inc": 2348,
      "ĠHar": 2349,
      "Ġremain": 2350,
      "Ġled": 2351,
      "apan": 2352,
      "Ġglobal": 2353,
      "Ġwide": 2354,
      "Ġloss": 2355,
      "rated": 2356,
      "nces": 2357,
      "ster": 2358,
      "):": 2359,
      "Ġword": 2360,
      "org": 2361,
      "Ġwhole": 2362,
      "Ġprevious": 2363,
      "Ġmaterials": 2364,
      "iddle": 2365,
      "fer": 2366,
      "Ġwhite": 2367,
      "Ġregion": 2368,
      "Al": 2369,
      "Ġconsidered": 2370,
      "Ġoutside": 2371,
      "Ġ@.": 2372,
      "Ġeconomic": 2373,
      "Ġlate": 2374,
      "Ġ@.@": 2375,
      "Ġidea": 2376,
      "Ġincreased": 2377,
      "Ġsource": 2378,
      "light": 2379,
      "pos": 2380,
      "ĠNo": 2381,
      "Ġsex": 2382,
      "erous": 2383,
      "Ġaffect": 2384,
      "Ġinstead": 2385,
      "ĠWhile": 2386,
      "Ġdone": 2387,
      "uth": 2388,
      "Ġprovides": 2389,
      "Ġinteg": 2390,
      "Ġincreasing": 2391,
      "Ġaction": 2392,
      "Ġreason": 2393,
      "Ġwanted": 2394,
      "Ġaspect": 2395,
      "Ġcho": 2396,
      "Ġactivity": 2397,
      "ening": 2398,
      "alt": 2399,
      "Ġmach": 2400,
      "Ġshare": 2401,
      ".)": 2402,
      "But": 2403,
      "Ġsomeone": 2404,
      "Ġskills": 2405,
      "Ġsoft": 2406,
      "Ġpriv": 2407,
      "eding": 2408,
      "ĠâĢĺ": 2409,
      "Ġcomes": 2410,
      "Ġtravel": 2411,
      "Ġinteract": 2412,
      "Ġrights": 2413,
      "Ġbuilt": 2414,
      "uments": 2415,
      "ming": 2416,
      "ER": 2417,
      "Ġneg": 2418,
      "urs": 2419,
      "Ġ2012": 2420,
      "ĠDes": 2421,
      "Ġadult": 2422,
      "Ġclaim": 2423,
      "atter": 2424,
      "Ġquality": 2425,
      "Ġitself": 2426,
      "Ġweek": 2427,
      "ĠAct": 2428,
      "Ġpaper": 2429,
      "Ġfactors": 2430,
      "Ġansw": 2431,
      "Ġasked": 2432,
      "inally": 2433,
      "pite": 2434,
      "Ġsam": 2435,
      "Ġsong": 2436,
      "Ġreview": 2437,
      "hing": 2438,
      "ule": 2439,
      "Ġalmost": 2440,
      "Ġfish": 2441,
      "bon": 2442,
      "Ġrate": 2443,
      "Ġdrug": 2444,
      "hib": 2445,
      "ĠAustral": 2446,
      "ĠHer": 2447,
      "Ġpractice": 2448,
      "ump": 2449,
      "Ġmanagement": 2450,
      "Ġsize": 2451,
      "ensive": 2452,
      "Ġposition": 2453,
      "ai": 2454,
      "Ġinn": 2455,
      "ĠCanad": 2456,
      "rate": 2457,
      "Ġreact": 2458,
      "rench": 2459,
      "Ġprovided": 2460,
      "ze": 2461,
      "Ġencoura": 2462,
      "How": 2463,
      "Ġtaking": 2464,
      "Ġfav": 2465,
      "rect": 2466,
      "ĠJapan": 2467,
      "Ġenvironmental": 2468,
      "ok": 2469,
      "Ġfire": 2470,
      "aches": 2471,
      "ĠDr": 2472,
      "Ġge": 2473,
      "osis": 2474,
      "Ġnecessary": 2475,
      "edi": 2476,
      "ĠPr": 2477,
      "13": 2478,
      "sc": 2479,
      "utes": 2480,
      "Ġcomputer": 2481,
      "erve": 2482,
      "ĠPres": 2483,
      "Ġrelated": 2484,
      "Ġoriginal": 2485,
      "Ġsat": 2486,
      "ĠCont": 2487,
      "ĠMe": 2488,
      "reme": 2489,
      "Ġcamp": 2490,
      "Ġ100": 2491,
      "ĠJan": 2492,
      "Ġproducts": 2493,
      "Ġstories": 2494,
      "uck": 2495,
      "Ġ**": 2496,
      "Ġgas": 2497,
      "Ġcapt": 2498,
      "Ġrev": 2499,
      "Ġeffic": 2500,
      "Ġlives": 2501,
      "Ġonline": 2502,
      "aving": 2503,
      "oose": 2504,
      "oles": 2505,
      "Ġmonths": 2506,
      "ournal": 2507,
      "Ġcannot": 2508,
      "Ġsust": 2509,
      "Ðµ": 2510,
      "ĠApp": 2511,
      "Ġmarket": 2512,
      "Ġ`": 2513,
      "Ġcommunities": 2514,
      "lex": 2515,
      "Ġfem": 2516,
      "Ġclimate": 2517,
      "Ġoil": 2518,
      "rown": 2519,
      "elling": 2520,
      "Ġgirl": 2521,
      "umb": 2522,
      "Ġbelow": 2523,
      "icro": 2524,
      "15": 2525,
      "Ġproduce": 2526,
      "When": 2527,
      "vere": 2528,
      "ĠFl": 2529,
      "rought": 2530,
      "//": 2531,
      "Ġpath": 2532,
      "Ġservice": 2533,
      "yle": 2534,
      "Ġcop": 2535,
      "orpor": 2536,
      "Ġ25": 2537,
      "Ġbur": 2538,
      "minist": 2539,
      "Ġattack": 2540,
      "ext": 2541,
      "Ġscientists": 2542,
      "Ġelements": 2543,
      "ister": 2544,
      "reng": 2545,
      "17": 2546,
      "uary": 2547,
      "ese": 2548,
      "Ġmess": 2549,
      "Ġrequired": 2550,
      "Ġsea": 2551,
      "Ġbehavior": 2552,
      "Ġut": 2553,
      "ĠJu": 2554,
      "Ġtraditional": 2555,
      "isions": 2556,
      "dom": 2557,
      "Ġce": 2558,
      "Ġdiv": 2559,
      "Ġjo": 2560,
      "rad": 2561,
      "NA": 2562,
      "Ġsqu": 2563,
      "urity": 2564,
      "Ġforms": 2565,
      "Ġsense": 2566,
      "Ġgreen": 2567,
      "16": 2568,
      "ĠPar": 2569,
      "den": 2570,
      "hel": 2571,
      "ĠTr": 2572,
      "Ġnorth": 2573,
      "Ġbreak": 2574,
      "Ġcompet": 2575,
      "Ġincluded": 2576,
      "aff": 2577,
      "Ġtown": 2578,
      "Ġste": 2579,
      "Ġ2010": 2580,
      "ĠĠĠ": 2581,
      "Ġpay": 2582,
      "ground": 2583,
      "Ġimplement": 2584,
      "ume": 2585,
      "ricult": 2586,
      "Ġ2008": 2587,
      "ĠPe": 2588,
      "Ġdesigned": 2589,
      "ĠPer": 2590,
      "hold": 2591,
      "abit": 2592,
      "Ġlab": 2593,
      "het": 2594,
      "eration": 2595,
      "Ġtrue": 2596,
      "Ġnut": 2597,
      "ĠSec": 2598,
      "Ġ2011": 2599,
      "Ġlove": 2600,
      "://": 2601,
      "icine": 2602,
      "ederal": 2603,
      "ropri": 2604,
      "ief": 2605,
      "Ġapproach": 2606,
      "Ġfarm": 2607,
      "Ġeveryone": 2608,
      "Ġwritten": 2609,
      "Ġver": 2610,
      "ĠAug": 2611,
      "Ġ50": 2612,
      "inated": 2613,
      "Ġbroad": 2614,
      "Ġ2009": 2615,
      "ĠSu": 2616,
      "Ġsociety": 2617,
      "na": 2618,
      "Ġmoney": 2619,
      "Ġcolor": 2620,
      "Ġprograms": 2621,
      "hood": 2622,
      "Ġtotal": 2623,
      "yth": 2624,
      "Ġrecent": 2625,
      "Ġcaused": 2626,
      "Ġparents": 2627,
      "Ġslow": 2628,
      "Ġtar": 2629,
      "ival": 2630,
      "Ġdisord": 2631,
      "Ġrecomm": 2632,
      "Ġvisit": 2633,
      "Ġexerc": 2634,
      "raft": 2635,
      "Ġattempt": 2636,
      "Ġtools": 2637,
      "ĠWill": 2638,
      "Ġcompon": 2639,
      "ucle": 2640,
      "idge": 2641,
      "rand": 2642,
      "Ġhours": 2643,
      "Ġmeaning": 2644,
      "Ġdoctor": 2645,
      "Ġaccept": 2646,
      "arily": 2647,
      "Ġconsist": 2648,
      "Ġearl": 2649,
      "mb": 2650,
      "Ġearth": 2651,
      "irit": 2652,
      "Ġdraw": 2653,
      "ashing": 2654,
      "Ġ@,": 2655,
      "come": 2656,
      "Ġ@,@": 2657,
      "ĠComp": 2658,
      "Ġactually": 2659,
      "gest": 2660,
      "Ġreduce": 2661,
      "Ġeffective": 2662,
      "onse": 2663,
      "Ġmethods": 2664,
      "lam": 2665,
      "Ġculture": 2666,
      "bo": 2667,
      "ply": 2668,
      "Ġshows": 2669,
      "Ġcommit": 2670,
      "vey": 2671,
      "Ġskin": 2672,
      "Ġtechniques": 2673,
      "Ġmatter": 2674,
      "Ġterms": 2675,
      "ĠOct": 2676,
      "ccording": 2677,
      "Ġsurv": 2678,
      "istance": 2679,
      "ĠInt": 2680,
      "ĠFrench": 2681,
      "Ġsubst": 2682,
      "ttp": 2683,
      "porary": 2684,
      "ners": 2685,
      "Ġmeasure": 2686,
      "ises": 2687,
      "joy": 2688,
      "ene": 2689,
      "istics": 2690,
      "Ġnight": 2691,
      "Ġcritical": 2692,
      "Ġsurround": 2693,
      "Ġstrateg": 2694,
      "based": 2695,
      "aling": 2696,
      "Ġmechan": 2697,
      "Ġstreng": 2698,
      "Ġface": 2699,
      "cies": 2700,
      "ĠÂ": 2701,
      "Ġpict": 2702,
      "Ġexpress": 2703,
      "Ġinsp": 2704,
      "Ġhistorical": 2705,
      "Ġgreater": 2706,
      "ĠSept": 2707,
      "ideo": 2708,
      "vention": 2709,
      "Ġinside": 2710,
      "Ġbring": 2711,
      "Ġavoid": 2712,
      "ervation": 2713,
      "ography": 2714,
      "ĠCenter": 2715,
      "ems": 2716,
      "arr": 2717,
      "Ġsafe": 2718,
      "yond": 2719,
      "ev": 2720,
      "Ġfeet": 2721,
      "Ġsouth": 2722,
      "Ġregular": 2723,
      "Ġchallenges": 2724,
      "ctions": 2725,
      "play": 2726,
      "ĠSchool": 2727,
      "aily": 2728,
      "Ġinvolved": 2729,
      "Ġwa": 2730,
      "Ġability": 2731,
      "Ġbehind": 2732,
      "Ġsources": 2733,
      "ĠResearch": 2734,
      "Ġrelative": 2735,
      "ades": 2736,
      "ĠFran": 2737,
      "rig": 2738,
      "Ġprote": 2739,
      "Ġalthough": 2740,
      "Ġallows": 2741,
      "Now": 2742,
      "!\"": 2743,
      "14": 2744,
      "Ġstop": 2745,
      "Ġheld": 2746,
      "ĠMore": 2747,
      "Ġcompany": 2748,
      "Ġsuff": 2749,
      "ĠFr": 2750,
      "ĠCons": 2751,
      "Ġsleep": 2752,
      "Ġcru": 2753,
      "Ġcondition": 2754,
      "Ġtraining": 2755,
      "Ġconduct": 2756,
      "bor": 2757,
      "Ġparticularly": 2758,
      "Ġensure": 2759,
      "Ġcontinue": 2760,
      "Ġreflect": 2761,
      "Ġstructure": 2762,
      "clusion": 2763,
      "Ġstay": 2764,
      "adem": 2765,
      "Ġcultural": 2766,
      "Ġfeatures": 2767,
      "ĠInstit": 2768,
      "Ġdiagn": 2769,
      "Ġstri": 2770,
      "Ġindustry": 2771,
      "You": 2772,
      "icles": 2773,
      "Ġforest": 2774,
      "AR": 2775,
      "ĠKing": 2776,
      "Ġcompl": 2777,
      "Ġincludes": 2778,
      "itor": 2779,
      "Ġcool": 2780,
      "ĠPre": 2781,
      "Ġbill": 2782,
      "Ġfa": 2783,
      "iled": 2784,
      "Ġleading": 2785,
      "Ġtheory": 2786,
      "Ġweight": 2787,
      "ĠJune": 2788,
      "Ġarticle": 2789,
      "'ll": 2790,
      "Ġstandard": 2791,
      "Ġproduced": 2792,
      "Ġvalues": 2793,
      "ĠCount": 2794,
      "Ġhappy": 2795,
      "ĠDo": 2796,
      "outhern": 2797,
      "Ġcoun": 2798,
      "Ġlands": 2799,
      "ĠTra": 2800,
      "Ġforce": 2801,
      "Ġec": 2802,
      "Ġperformance": 2803,
      "Ġlot": 2804,
      "ilos": 2805,
      "Ġinternational": 2806,
      "Ġthreat": 2807,
      "Ġheat": 2808,
      "Ġunit": 2809,
      "Ġord": 2810,
      "Ġspread": 2811,
      "Ġcust": 2812,
      "Ġpractices": 2813,
      "Ġdemonst": 2814,
      "Ġaud": 2815,
      "ĠFrom": 2816,
      "fect": 2817,
      "ĠAugust": 2818,
      "?\"": 2819,
      "__": 2820,
      "rast": 2821,
      "Ġ24": 2822,
      "Ġgot": 2823,
      "Ġpositive": 2824,
      "ĠScience": 2825,
      "Ġschools": 2826,
      "lege": 2827,
      "Ġhelps": 2828,
      "Ġcat": 2829,
      "inating": 2830,
      "Ġeth": 2831,
      "ES": 2832,
      "Ġast": 2833,
      "Ġbeaut": 2834,
      "Ġaverage": 2835,
      "rote": 2836,
      "ulate": 2837,
      "ĠDepartment": 2838,
      "Ġselect": 2839,
      "ĠChurch": 2840,
      "Ġanalysis": 2841,
      "Ġx": 2842,
      "ĠUnder": 2843,
      "osing": 2844,
      "Ġlog": 2845,
      "Ġlonger": 2846,
      "Ġtarget": 2847,
      "Ġenjoy": 2848,
      "Ġinstance": 2849,
      "Ġjob": 2850,
      "Ġemot": 2851,
      "Ġdescribed": 2852,
      "Ġefforts": 2853,
      "Ġcontinued": 2854,
      "Ġbal": 2855,
      "Ġcontribut": 2856,
      "Ġreported": 2857,
      "Ġoffer": 2858,
      "Ġbooks": 2859,
      "ĠReg": 2860,
      "Ġpsych": 2861,
      "ĠRec": 2862,
      "Ġrefer": 2863,
      "Ġreceived": 2864,
      "Ġestablished": 2865,
      "orthern": 2866,
      "Ġdeveloping": 2867,
      "ille": 2868,
      "alu": 2869,
      "Ġwarm": 2870,
      "Ġrout": 2871,
      "bit": 2872,
      "iber": 2873,
      "Ġ2007": 2874,
      "Ġconc": 2875,
      "Ġviol": 2876,
      "son": 2877,
      "itation": 2878,
      "iforn": 2879,
      "Ġwild": 2880,
      "Ġdog": 2881,
      "pril": 2882,
      "Ġcross": 2883,
      "ĠSeptember": 2884,
      "ĠPart": 2885,
      "Ġcontact": 2886,
      "Ġthird": 2887,
      "Ġmultip": 2888,
      "ĠGerman": 2889,
      "Ġfelt": 2890,
      "ribute": 2891,
      "Ġnumbers": 2892,
      "Ġtax": 2893,
      "Ġcreating": 2894,
      "Ġmilitary": 2895,
      "rapy": 2896,
      "ellow": 2897,
      "ĠEl": 2898,
      "Ġcoast": 2899,
      "So": 2900,
      "ios": 2901,
      "Ġcommand": 2902,
      "ĠMany": 2903,
      "Ġuses": 2904,
      "Ġgenerally": 2905,
      "ibrary": 2906,
      "Ġmount": 2907,
      "bre": 2908,
      "ĠMin": 2909,
      "Ġthing": 2910,
      "Ġaim": 2911,
      "ĠMarch": 2912,
      "Ġdoing": 2913,
      "Ġexperiences": 2914,
      "Ġcivil": 2915,
      "Ġlink": 2916,
      "ĠWest": 2917,
      "Ġmovement": 2918,
      "Ġreligious": 2919,
      "Ġquickly": 2920,
      "Ġpage": 2921,
      "Ġpoints": 2922,
      "Ġdamage": 2923,
      "itch": 2924,
      "Ð¸": 2925,
      "Ã¡": 2926,
      "Ġsustain": 2927,
      "Ġwood": 2928,
      "Ġhealthy": 2929,
      "Ġofficial": 2930,
      "Ġwriting": 2931,
      "Ġimage": 2932,
      "Ġcode": 2933,
      "Ġgrowing": 2934,
      "Ġclean": 2935,
      "wor": 2936,
      "ribution": 2937,
      "ifornia": 2938,
      "Ġissue": 2939,
      "Ġattention": 2940,
      "oly": 2941,
      "Ġwond": 2942,
      "rim": 2943,
      "Ġsmo": 2944,
      "Ġcompan": 2945,
      "ĠII": 2946,
      "ength": 2947,
      "Ġtree": 2948,
      "Ġdou": 2949,
      "Ġsoon": 2950,
      "Ġharm": 2951,
      "ĠEd": 2952,
      "Ġagre": 2953,
      "Ġchemical": 2954,
      "ift": 2955,
      "standing": 2956,
      "Ġtakes": 2957,
      "oor": 2958,
      "IV": 2959,
      "ĠAlthough": 2960,
      "duc": 2961,
      "hens": 2962,
      "where": 2963,
      "ĠRiver": 2964,
      "Ġprogress": 2965,
      "Ġminim": 2966,
      "ror": 2967,
      "Once": 2968,
      "pid": 2969,
      "Ġresponse": 2970,
      "ĠKe": 2971,
      "izations": 2972,
      "aged": 2973,
      "astic": 2974,
      "Ġindepend": 2975,
      "Ġenh": 2976,
      "Ġbelieve": 2977,
      "25": 2978,
      "anks": 2979,
      "Ġreading": 2980,
      "Ġtemperature": 2981,
      "Ġreve": 2982,
      "ĠJuly": 2983,
      "Ġmedia": 2984,
      "Ġideas": 2985,
      "Ġfilm": 2986,
      "ON": 2987,
      "ĠLet": 2988,
      "ĠSim": 2989,
      "Ġdecided": 2990,
      "Ġhar": 2991,
      "Ġinnov": 2992,
      "IN": 2993,
      "Ġidentify": 2994,
      "ĠTim": 2995,
      "ufact": 2996,
      "cean": 2997,
      "isms": 2998,
      "rie": 2999,
      "ÑĤ": 3000,
      "Ġscientific": 3001,
      "Ġtit": 3002,
      "Ġprobably": 3003,
      "ovember": 3004,
      "Ð°": 3005,
      "inct": 3006,
      "Ġarri": 3007,
      "Ġcover": 3008,
      "oming": 3009,
      "alls": 3010,
      "Ġinstit": 3011,
      "Ġsimply": 3012,
      "ashington": 3013,
      "Ġfinan": 3014,
      "Ġple": 3015,
      "Ġassess": 3016,
      "Ġago": 3017,
      "Ġfront": 3018,
      "more": 3019,
      "Ġmiles": 3020,
      "ĠChar": 3021,
      "ĠJanuary": 3022,
      "icated": 3023,
      "Ġwrote": 3024,
      "ĠOctober": 3025,
      "Ġkids": 3026,
      "Ġstudent": 3027,
      "ĠCalifornia": 3028,
      "Ġfamilies": 3029,
      "right": 3030,
      "ension": 3031,
      "Ġsold": 3032,
      "Ġbeyond": 3033,
      "mon": 3034,
      "Ġadded": 3035,
      "Ġfoot": 3036,
      "gar": 3037,
      "Ġfat": 3038,
      "ĠBar": 3039,
      "mar": 3040,
      "vest": 3041,
      "Ġwhose": 3042,
      "Ġappropri": 3043,
      "Ġestim": 3044,
      "erson": 3045,
      "Ġsafety": 3046,
      "Ġeat": 3047,
      "Ġhimself": 3048,
      "Ġfru": 3049,
      "Ġnormal": 3050,
      "cil": 3051,
      "Ġfinal": 3052,
      "haps": 3053,
      "Ġenter": 3054,
      "ĠChristian": 3055,
      "Ġsil": 3056,
      "Ġaltern": 3057,
      "Ġap": 3058,
      "ĠQu": 3059,
      "By": 3060,
      "ĠLily": 3061,
      "Ġwebs": 3062,
      "Ġhumans": 3063,
      "abet": 3064,
      "Ġplayed": 3065,
      "Ġinj": 3066,
      "cember": 3067,
      "Ġremains": 3068,
      "Ġcentral": 3069,
      "Ġelse": 3070,
      "Ġpromot": 3071,
      "overy": 3072,
      "wise": 3073,
      "ĠDuring": 3074,
      "Ġinvestig": 3075,
      "Ġtal": 3076,
      "Ġcommunication": 3077,
      "Ġroad": 3078,
      "Ġstru": 3079,
      "He": 3080,
      "odies": 3081,
      "Ġactive": 3082,
      "Ġemp": 3083,
      "Ġremember": 3084,
      "Ġpolicy": 3085,
      "ously": 3086,
      "Ġpoor": 3087,
      "ico": 3088,
      "ĠApril": 3089,
      "Ġhor": 3090,
      "Ġshap": 3091,
      "ĠThrough": 3092,
      "Ġexcept": 3093,
      "Ġcontent": 3094,
      "cks": 3095,
      "head": 3096,
      "Ġmagn": 3097,
      "Ġones": 3098,
      "Ġanaly": 3099,
      "useum": 3100,
      "ĠServ": 3101,
      "Ġroom": 3102,
      "ĠAg": 3103,
      "ender": 3104,
      "Ġadditional": 3105,
      "ĠGl": 3106,
      "Ġimportance": 3107,
      "Ġsearch": 3108,
      "ologies": 3109,
      "Ġancient": 3110,
      "reci": 3111,
      "ĠEngland": 3112,
      "rial": 3113,
      "Ġappe": 3114,
      "Ġ40": 3115,
      "itude": 3116,
      "ĠEuropean": 3117,
      "Ġcauses": 3118,
      "Ġcollabor": 3119,
      "Ġdecision": 3120,
      "Ġpoll": 3121,
      "Ġoverall": 3122,
      "Ġnation": 3123,
      "Ġaccur": 3124,
      "ription": 3125,
      "Ġmag": 3126,
      "term": 3127,
      "Ġdaily": 3128,
      "Ġlost": 3129,
      "gency": 3130,
      "inks": 3131,
      "Ġshown": 3132,
      "ronic": 3133,
      "Ġserious": 3134,
      "Ġtold": 3135,
      "aul": 3136,
      "ying": 3137,
      "Ġstress": 3138,
      "fort": 3139,
      "ĠDav": 3140,
      "Ġthus": 3141,
      "Ġprimary": 3142,
      "iny": 3143,
      "Ġhands": 3144,
      "rs": 3145,
      "Ġlooking": 3146,
      "Ġbenefits": 3147,
      "aly": 3148,
      "AT": 3149,
      "Ġrock": 3150,
      "Ġcheck": 3151,
      "Ġforces": 3152,
      "ields": 3153,
      "iers": 3154,
      "Ġimmedi": 3155,
      "Ġwon": 3156,
      "Ġlarger": 3157,
      "Ġsection": 3158,
      "Ġexact": 3159,
      "Ġextra": 3160,
      "Ġleaders": 3161,
      "Ġanimal": 3162,
      "Ġinterp": 3163,
      "ulated": 3164,
      "ĠWashington": 3165,
      "ĠYour": 3166,
      "reek": 3167,
      "emporary": 3168,
      "Ġaware": 3169,
      "oday": 3170,
      "Ġbasic": 3171,
      "Ġmultiple": 3172,
      "ought": 3173,
      "Ġlines": 3174,
      "IS": 3175,
      "Ġvalu": 3176,
      "Ġveget": 3177,
      "Ġdiet": 3178,
      "Ġfight": 3179,
      "iece": 3180,
      "AC": 3181,
      "Ġestablish": 3182,
      "che": 3183,
      "Ġprep": 3184,
      "ĠCour": 3185,
      "Ġgetting": 3186,
      "Ġang": 3187,
      "ĠOther": 3188,
      "Ġelectric": 3189,
      "Ġcarbon": 3190,
      "Ex": 3191,
      "Ġir": 3192,
      "ĠWilliam": 3193,
      "Ġappl": 3194,
      "ancy": 3195,
      "ĠNovember": 3196,
      "Ġyourself": 3197,
      "Ġfram": 3198,
      "Ġnucle": 3199,
      "Ġbrought": 3200,
      "amin": 3201,
      "Ġguid": 3202,
      "Ġdocument": 3203,
      "fs": 3204,
      "Ġinform": 3205,
      "Ġthous": 3206,
      "Ġvideo": 3207,
      "Ġmother": 3208,
      "Ġcenter": 3209,
      "Ġvariety": 3210,
      "Ġmanufact": 3211,
      "Ġdoesn": 3212,
      "Ġplaying": 3213,
      "ĠSm": 3214,
      "ĠJust": 3215,
      "Ġgave": 3216,
      "Ġlack": 3217,
      "ID": 3218,
      "ius": 3219,
      "Ġsus": 3220,
      "ĠHistory": 3221,
      "Ġfavor": 3222,
      "lev": 3223,
      "Ġearlier": 3224,
      "Ġadop": 3225,
      "ĠCath": 3226,
      "Ġreef": 3227,
      "Ġlimited": 3228,
      "AN": 3229,
      "nown": 3230,
      "Ġcele": 3231,
      "ĠBen": 3232,
      "ĠInternational": 3233,
      "omet": 3234,
      "Ġmix": 3235,
      "Ġcompared": 3236,
      "Ġcam": 3237,
      "Ġprocesses": 3238,
      "Ġbase": 3239,
      "ĠUs": 3240,
      "ĠInstitute": 3241,
      "Ġeverything": 3242,
      "used": 3243,
      "Ġtrad": 3244,
      "ider": 3245,
      "Ġlooked": 3246,
      "Ġeasy": 3247,
      "Ġhost": 3248,
      "iring": 3249,
      "Ġrapid": 3250,
      "ino": 3251,
      "Ġcit": 3252,
      "ĠTw": 3253,
      "urt": 3254,
      "Ġevalu": 3255,
      "Ġmental": 3256,
      "Ġhttp": 3257,
      "oud": 3258,
      "ĠCity": 3259,
      "Ġdidn": 3260,
      "undred": 3261,
      "Ġobjects": 3262,
      "Ġinfluence": 3263,
      "itect": 3264,
      "Ġproced": 3265,
      "Ġi": 3266,
      "Ġpatterns": 3267,
      "Ġfoods": 3268,
      "Ġextreme": 3269,
      "Ġran": 3270,
      "Ġapplications": 3271,
      "Ġlearned": 3272,
      "ĠPress": 3273,
      "Ġquite": 3274,
      "Ġsevere": 3275,
      "Ġnav": 3276,
      "ĠMc": 3277,
      "bl": 3278,
      "Ġincorpor": 3279,
      "Ġprior": 3280,
      "Ġinstall": 3281,
      "ounds": 3282,
      "Ġpatient": 3283,
      "ĠDecember": 3284,
      "ourney": 3285,
      "ana": 3286,
      "Ġful": 3287,
      "Ġcalc": 3288,
      "ped": 3289,
      "Ġsett": 3290,
      "Ġconnect": 3291,
      "Ġsuccessful": 3292,
      "Ġlocated": 3293,
      "ĠIndian": 3294,
      "ĠAc": 3295,
      "ĠEduc": 3296,
      "Ġformer": 3297,
      "Ġvict": 3298,
      "Ġ22": 3299,
      "set": 3300,
      "Ġcommer": 3301,
      "Ġlo": 3302,
      "ĠFeb": 3303,
      "Ġappreci": 3304,
      "chol": 3305,
      "ĠAssoci": 3306,
      "www": 3307,
      "iful": 3308,
      "asons": 3309,
      "Ġdecl": 3310,
      "Ġhot": 3311,
      "Ġvaluable": 3312,
      "ĠProg": 3313,
      "iar": 3314,
      "phas": 3315,
      "Ġprint": 3316,
      "Ġten": 3317,
      "pper": 3318,
      "Ġmemory": 3319,
      "Ġtrees": 3320,
      "Ġopportunities": 3321,
      "aur": 3322,
      "ky": 3323,
      "Ġfather": 3324,
      "Ġprec": 3325,
      "Ġstrategies": 3326,
      "urg": 3327,
      "ĠNot": 3328,
      "Ġcontext": 3329,
      "Ġdark": 3330,
      "ecause": 3331,
      "ties": 3332,
      "ĠMus": 3333,
      "Ġrequires": 3334,
      "Ġborn": 3335,
      "Ġstorm": 3336,
      "Ġdang": 3337,
      "Ġimpl": 3338,
      "Ġspeak": 3339,
      "Ġbirds": 3340,
      "ĠChina": 3341,
      "ĠMex": 3342,
      "Ġbit": 3343,
      "Ġball": 3344,
      "acters": 3345,
      "Ġsequ": 3346,
      "Ġevolution": 3347,
      "Ġagricult": 3348,
      "Ġnetwork": 3349,
      "iles": 3350,
      "Ġund": 3351,
      "iency": 3352,
      "Ġimages": 3353,
      "Ġformed": 3354,
      "Ġcontinu": 3355,
      "Ġmiss": 3356,
      "Ġcorrect": 3357,
      "Ġadminist": 3358,
      "Ġfollowed": 3359,
      "Ġreleased": 3360,
      "olec": 3361,
      "iter": 3362,
      "ĠMon": 3363,
      "Ġexploring": 3364,
      "ham": 3365,
      "wide": 3366,
      "Ġdirectly": 3367,
      "Ġproviding": 3368,
      "Ġpen": 3369,
      "rag": 3370,
      "Ġsoil": 3371,
      "Ġpowerful": 3372,
      "Ġult": 3373,
      "Ġfost": 3374,
      "Ġ195": 3375,
      "oes": 3376,
      "ĠArt": 3377,
      "Ġachieve": 3378,
      "Ġvisual": 3379,
      "On": 3380,
      "eed": 3381,
      "Ġnearly": 3382,
      "Ġvacc": 3383,
      "resh": 3384,
      "ÃŃ": 3385,
      "life": 3386,
      "ĠFirst": 3387,
      "ĠIndia": 3388,
      "Ġmid": 3389,
      "Ġlif": 3390,
      "ĠMost": 3391,
      "Ġaspects": 3392,
      "ĠPol": 3393,
      "Ġresponsible": 3394,
      "rong": 3395,
      "Ġplaces": 3396,
      "Im": 3397,
      "agement": 3398,
      "Ġcompanies": 3399,
      "yp": 3400,
      "Ġwat": 3401,
      "Ġaccom": 3402,
      "Ġtrade": 3403,
      "inese": 3404,
      "Ġprojects": 3405,
      "Ġadj": 3406,
      "Ġdefin": 3407,
      "Ġsal": 3408,
      "Ġeyes": 3409,
      "Ġ2006": 3410,
      "Ġsolar": 3411,
      "199": 3412,
      "Ġgradu": 3413,
      "'ve": 3414,
      "Ġexpect": 3415,
      "coh": 3416,
      "uries": 3417,
      "Ġtransport": 3418,
      "reet": 3419,
      "su": 3420,
      "Ġchapter": 3421,
      "izes": 3422,
      "Ġ23": 3423,
      "Ġspirit": 3424,
      "And": 3425,
      "Ġheard": 3426,
      "Ġ21": 3427,
      "Ġlocation": 3428,
      "Ġdetermine": 3429,
      "pose": 3430,
      "ĠGeneral": 3431,
      "Ġbecomes": 3432,
      "Ġminutes": 3433,
      "Ġthinking": 3434,
      "Ġbad": 3435,
      "illing": 3436,
      "Ġsymb": 3437,
      "see": 3438,
      "Ġneigh": 3439,
      "Ġfeature": 3440,
      "ĠPresident": 3441,
      "Ġfile": 3442,
      "Ġcollection": 3443,
      "oe": 3444,
      "ara": 3445,
      "room": 3446,
      "Ġreach": 3447,
      "Ġinstr": 3448,
      "Ġetc": 3449,
      "Ġsoftware": 3450,
      "Ġox": 3451,
      "Ġfasc": 3452,
      "Ġbound": 3453,
      "ama": 3454,
      "Ġbab": 3455,
      "Ġlength": 3456,
      "ĠRuss": 3457,
      "\",": 3458,
      "uge": 3459,
      "ĠCanada": 3460,
      "Ġgain": 3461,
      "Ġexec": 3462,
      "Ġcarry": 3463,
      "ĠAfrican": 3464,
      "ilosoph": 3465,
      "Ġfinancial": 3466,
      "Ġmachine": 3467,
      "erg": 3468,
      "ruary": 3469,
      "Ġice": 3470,
      "Ġdiscovered": 3471,
      "Ġ...": 3472,
      "Ġgoal": 3473,
      "Ġ+": 3474,
      "Ġpack": 3475,
      "amb": 3476,
      "Ġlabor": 3477,
      "Ġapplication": 3478,
      "osure": 3479,
      "Ġbirth": 3480,
      "Ġprivate": 3481,
      "Ġshall": 3482,
      "Ġ2013": 3483,
      "ynam": 3484,
      "Ġtalk": 3485,
      "Ġfit": 3486,
      "Ġnews": 3487,
      "water": 3488,
      "ĠSoci": 3489,
      "Ġhabit": 3490,
      "Ġnovel": 3491,
      "ha": 3492,
      "Ġbreat": 3493,
      "Ġhon": 3494,
      "Ġcustom": 3495,
      "Ġ193": 3496,
      "Ġvo": 3497,
      "Ġshape": 3498,
      "Ġbeginning": 3499,
      "ĠRed": 3500,
      "Ġcharacters": 3501,
      "cape": 3502,
      "Ġcra": 3503,
      "ĠCong": 3504,
      "ĠRoman": 3505,
      "Ġoffers": 3506,
      "Ġder": 3507,
      "Ġsites": 3508,
      "Ġbird": 3509,
      "Ġhundred": 3510,
      "ĠAfrica": 3511,
      "ingu": 3512,
      "Ġwal": 3513,
      "ocks": 3514,
      "Ġrespond": 3515,
      "ĠAnt": 3516,
      "Ġmoved": 3517,
      "Ġtable": 3518,
      "Ġ2005": 3519,
      "Ġcard": 3520,
      "ĠGovern": 3521,
      "Ġfederal": 3522,
      "Ġrates": 3523,
      "oration": 3524,
      "Ġlived": 3525,
      "Ġask": 3526,
      "ĠTechn": 3527,
      "ifically": 3528,
      "Ġquant": 3529,
      "Ġpan": 3530,
      "ford": 3531,
      "Ġrob": 3532,
      "ĠSam": 3533,
      "osition": 3534,
      "ĠGreat": 3535,
      "ĠCounty": 3536,
      "Ġdigital": 3537,
      "Ġfast": 3538,
      "Ġcolon": 3539,
      "Ġsn": 3540,
      "ĠAccording": 3541,
      "Ġstar": 3542,
      "ĠRet": 3543,
      "ĠDevelop": 3544,
      "idents": 3545,
      "Ġconflic": 3546,
      "entially": 3547,
      "igen": 3548,
      "Ġtrying": 3549,
      "ĠInst": 3550,
      "icate": 3551,
      "Ġgames": 3552,
      "cell": 3553,
      "mosp": 3554,
      "ceed": 3555,
      "Ġcontains": 3556,
      "abetes": 3557,
      "Ġdied": 3558,
      "uk": 3559,
      "Ġdiverse": 3560,
      "ball": 3561,
      "Ġcrucial": 3562,
      "ements": 3563,
      "Ġrules": 3564,
      "Ġgard": 3565,
      "Ġillust": 3566,
      "OR": 3567,
      "Ñģ": 3568,
      "Ġfuel": 3569,
      "Ġmention": 3570,
      "ula": 3571,
      "Ġworked": 3572,
      "mission": 3573,
      "uman": 3574,
      "enge": 3575,
      "At": 3576,
      "ĠChinese": 3577,
      "Ġexercise": 3578,
      "Ġseems": 3579,
      "Ġjourney": 3580,
      "40": 3581,
      "Ġdead": 3582,
      "Ġmember": 3583,
      "lim": 3584,
      "ĠUnion": 3585,
      "Ġtests": 3586,
      "ica": 3587,
      "cious": 3588,
      "Ġlargest": 3589,
      "Ġtoward": 3590,
      "ĠHigh": 3591,
      "Ġperspect": 3592,
      "Ġtou": 3593,
      "Ġhosp": 3594,
      "ĠNow": 3595,
      "Ġweather": 3596,
      "Ġdifference": 3597,
      "Ġvirus": 3598,
      "nes": 3599,
      "Ġtherefore": 3600,
      "Ġregarding": 3601,
      "Ġcou": 3602,
      "Ġchurch": 3603,
      "aught": 3604,
      "Ġ26": 3605,
      "Ġweeks": 3606,
      "roy": 3607,
      "Ġmonth": 3608,
      "equ": 3609,
      "ĠPhil": 3610,
      "ipment": 3611,
      "Ġconstit": 3612,
      "Ð¾Ð": 3613,
      "IC": 3614,
      "ĠAmericans": 3615,
      "Ġsummer": 3616,
      "Ġfeed": 3617,
      "ĠOver": 3618,
      "Ġsurpr": 3619,
      "gery": 3620,
      "irm": 3621,
      "Ġvill": 3622,
      "Ġstructures": 3623,
      "ĠInc": 3624,
      "Ġwatch": 3625,
      "Ġeight": 3626,
      "Ġplat": 3627,
      "Ġappropriate": 3628,
      "Ġden": 3629,
      "ĠSystem": 3630,
      "Ġprotection": 3631,
      "Ġmiddle": 3632,
      "Ġperfect": 3633,
      "Ġprinciples": 3634,
      "orge": 3635,
      "Ġhope": 3636,
      "ĠPark": 3637,
      "lation": 3638,
      "rew": 3639,
      "Ġhous": 3640,
      "ament": 3641,
      "Ġhighly": 3642,
      "ĠCommun": 3643,
      "Ġdry": 3644,
      "Ġsmaller": 3645,
      "ĠTheir": 3646,
      "pped": 3647,
      "80": 3648,
      "Ġalone": 3649,
      "Ġconstruct": 3650,
      "Ã³": 3651,
      "Ġrich": 3652,
      "Ġrare": 3653,
      "Ġeasily": 3654,
      "ĠOf": 3655,
      "Ġtypically": 3656,
      "Ġconcent": 3657,
      "arian": 3658,
      "Ġ190": 3659,
      "ĠChild": 3660,
      "Ġrain": 3661,
      "aign": 3662,
      "ĠSw": 3663,
      "Ġfair": 3664,
      "ĠInter": 3665,
      ");": 3666,
      "Ġson": 3667,
      "Ġgenetic": 3668,
      "Ġcapac": 3669,
      "Ġeye": 3670,
      "Ġemphas": 3671,
      "Section": 3672,
      "Ġtiss": 3673,
      "time": 3674,
      "Ġkm": 3675,
      "back": 3676,
      "ondon": 3677,
      "ĠVir": 3678,
      "Ġbox": 3679,
      "Ġanything": 3680,
      "Ġanswer": 3681,
      "Ġversion": 3682,
      "Ġadults": 3683,
      "Ġarm": 3684,
      "```": 3685,
      "ĠDis": 3686,
      "Ġsteps": 3687,
      "Ġcapital": 3688,
      "Ġsituation": 3689,
      "gn": 3690,
      "inate": 3691,
      "Ġlegal": 3692,
      "craft": 3693,
      "fficient": 3694,
      "ĠCatholic": 3695,
      "odes": 3696,
      "roduction": 3697,
      "uff": 3698,
      "Ġiron": 3699,
      "Ġforward": 3700,
      "Ġwrite": 3701,
      "mitted": 3702,
      "ĠArch": 3703,
      "Ġarchitect": 3704,
      "Ġobtain": 3705,
      "vant": 3706,
      "yd": 3707,
      "oul": 3708,
      "ĠBo": 3709,
      "antic": 3710,
      "Ġwebsite": 3711,
      "anish": 3712,
      "Ġcro": 3713,
      "Ġsecurity": 3714,
      "Ġstra": 3715,
      "ĠEach": 3716,
      "Ġcontemporary": 3717,
      "Ġrecords": 3718,
      "ĠFebruary": 3719,
      "Ġbott": 3720,
      "Ġclin": 3721,
      "Ġshared": 3722,
      "vert": 3723,
      "Ġcred": 3724,
      "eces": 3725,
      "year": 3726,
      "Ġmis": 3727,
      "Ġepis": 3728,
      "Ġdecre": 3729,
      "Ġdisplay": 3730,
      "Ġserve": 3731,
      "Ġscreen": 3732,
      "Ġfemale": 3733,
      "Ġcomponents": 3734,
      "can": 3735,
      "Ġbeautiful": 3736,
      "Ġmicro": 3737,
      "airs": 3738,
      "rical": 3739,
      "edia": 3740,
      "rael": 3741,
      "Ġeating": 3742,
      "Con": 3743,
      "ÑĢ": 3744,
      "Ġnothing": 3745,
      "Ġvirt": 3746,
      "hest": 3747,
      "Ġteachers": 3748,
      "omb": 3749,
      "ĠSociety": 3750,
      "itable": 3751,
      "Ġbra": 3752,
      "Ġallowed": 3753,
      "ocr": 3754,
      "Ġheavy": 3755,
      "Ġswe": 3756,
      "ĠWell": 3757,
      "ĠJes": 3758,
      "Ġconvers": 3759,
      "Ġproperty": 3760,
      "Ġdistinct": 3761,
      "Ġisland": 3762,
      "ĠCO": 3763,
      "Ġconstruction": 3764,
      "sect": 3765,
      "Ġscen": 3766,
      "Ġrecently": 3767,
      "Ġhyd": 3768,
      "ĠCoun": 3769,
      "rehens": 3770,
      "ĠPat": 3771,
      "Ġbacter": 3772,
      "Ġstage": 3773,
      "Ġstrugg": 3774,
      "Ġsac": 3775,
      "ests": 3776,
      "Ġorganizations": 3777,
      "Ġdemand": 3778,
      "men": 3779,
      "Ġadapt": 3780,
      "Ġreached": 3781,
      "cles": 3782,
      "ech": 3783,
      "Ġjud": 3784,
      "ĠMod": 3785,
      "tee": 3786,
      "Ġactions": 3787,
      "Ġsupply": 3788,
      "Ġinvolves": 3789,
      "encies": 3790,
      "Ġdifferences": 3791,
      "Ġcontribute": 3792,
      "ĠAng": 3793,
      "Ġriver": 3794,
      "omy": 3795,
      "rab": 3796,
      "Ġdat": 3797,
      "ĠThen": 3798,
      "Ġplaced": 3799,
      "Ġdiscover": 3800,
      "Ġcourt": 3801,
      "Ġreceive": 3802,
      "Ġcold": 3803,
      "Ġapprox": 3804,
      "hemat": 3805,
      "Ġpredict": 3806,
      "Ġpi": 3807,
      "Ġmolec": 3808,
      "Ġauthors": 3809,
      "ĠJewish": 3810,
      "ĠMich": 3811,
      "Ġoptim": 3812,
      "Ġnumerous": 3813,
      "care": 3814,
      "Ġuseful": 3815,
      "Ġcry": 3816,
      "ĠEast": 3817,
      "Ġoperations": 3818,
      "ĠSur": 3819,
      "ague": 3820,
      "oses": 3821,
      "Ġeconomy": 3822,
      "Ġsignificantly": 3823,
      "Ġegg": 3824,
      "22": 3825,
      "Ġlaws": 3826,
      "Ġtrack": 3827,
      "Ġrelationships": 3828,
      "Ġpiece": 3829,
      "Ġtool": 3830,
      "Ġcontroll": 3831,
      "hips": 3832,
      "Ġliterature": 3833,
      "Ġren": 3834,
      "cohol": 3835,
      "Ġcelebr": 3836,
      "iant": 3837,
      "EN": 3838,
      "rest": 3839,
      "Ġcorn": 3840,
      "leg": 3841,
      "ĠSan": 3842,
      "Ġpassed": 3843,
      "asion": 3844,
      "iding": 3845,
      "Ġisn": 3846,
      "Ġmodels": 3847,
      "ida": 3848,
      "Ġrelease": 3849,
      "Ġcosts": 3850,
      "ĠMy": 3851,
      "Ġrunning": 3852,
      "Ġfresh": 3853,
      "Ġexamples": 3854,
      "imens": 3855,
      "ĠEven": 3856,
      "unch": 3857,
      "Ġ60": 3858,
      "Ġwest": 3859,
      "Ġspeed": 3860,
      "ĠRem": 3861,
      "Ġtend": 3862,
      "ropical": 3863,
      "Ġmoving": 3864,
      "Ġrise": 3865,
      "60": 3866,
      "Ġfear": 3867,
      "ĠDay": 3868,
      "Ġeffort": 3869,
      "Ġolder": 3870,
      "Ġacqu": 3871,
      ":**": 3872,
      "Ġexpand": 3873,
      "Ġequipment": 3874,
      "aint": 3875,
      "Ġ27": 3876,
      "Ġloved": 3877,
      "axim": 3878,
      "Ġforeign": 3879,
      "ightly": 3880,
      "ĠRober": 3881,
      "Ġdate": 3882,
      "Ġdiseases": 3883,
      "Ġappears": 3884,
      "Ġbeg": 3885,
      "Ġatmosp": 3886,
      "Ġexplain": 3887,
      "rang": 3888,
      "Ġmeasures": 3889,
      "Ġperhaps": 3890,
      "Ġadvant": 3891,
      "atur": 3892,
      "Ġcore": 3893,
      "Ġnames": 3894,
      "ĠHouse": 3895,
      "Ġadvent": 3896,
      "ellig": 3897,
      "ĠCor": 3898,
      "Ġprofessional": 3899,
      "Be": 3900,
      "era": 3901,
      "Ġallowing": 3902,
      "Ġiniti": 3903,
      "Ġleaves": 3904,
      "Ġcitiz": 3905,
      "bum": 3906,
      "Ġblue": 3907,
      "Ġinfection": 3908,
      "Ġsurrounding": 3909,
      "Ġ2000": 3910,
      "sec": 3911,
      "istry": 3912,
      "Ġeventually": 3913,
      "ĠAustralia": 3914,
      "ĠIsrael": 3915,
      "PA": 3916,
      "Ġing": 3917,
      "ĠAssociation": 3918,
      "Ġboy": 3919,
      "Ġfaith": 3920,
      "Ġ28": 3921,
      "ken": 3922,
      "ĠDiv": 3923,
      "ĠLondon": 3924,
      "aled": 3925,
      "ancing": 3926,
      "Ġdistance": 3927,
      "Ġstandards": 3928,
      "Ġstyle": 3929,
      "ords": 3930,
      "Ġconsequ": 3931,
      "cast": 3932,
      "Ġschol": 3933,
      "Ġgun": 3934,
      "rief": 3935,
      "omas": 3936,
      "lin": 3937,
      "Ġpark": 3938,
      "Ġhop": 3939,
      "ĠMount": 3940,
      "ython": 3941,
      "Ġsect": 3942,
      "Ġgold": 3943,
      "ĠFrance": 3944,
      "Ġturned": 3945,
      "Ġfascinating": 3946,
      "ĠOff": 3947,
      "Ġur": 3948,
      "zz": 3949,
      "Ġ000": 3950,
      "eper": 3951,
      "Ġbelieved": 3952,
      "co": 3953,
      "Ġscale": 3954,
      "resp": 3955,
      "Ġcateg": 3956,
      "iest": 3957,
      "Ð½": 3958,
      "ĠEducation": 3959,
      "atin": 3960,
      "Ġshowed": 3961,
      "Ġplanet": 3962,
      "ald": 3963,
      "Ġhelped": 3964,
      "Step": 3965,
      "Ġcontract": 3966,
      "Ġexhib": 3967,
      "cip": 3968,
      "Ġoccurs": 3969,
      "Ġexisting": 3970,
      "rition": 3971,
      "Ġfunctions": 3972,
      "Ġoccup": 3973,
      "rees": 3974,
      "igned": 3975,
      "Ġaffected": 3976,
      "ED": 3977,
      "Ġreduced": 3978,
      "Ġship": 3979,
      "rog": 3980,
      "ĠJames": 3981,
      "Ġinteresting": 3982,
      "Ġconcerns": 3983,
      "Ġpicture": 3984,
      "Ġclos": 3985,
      "IT": 3986,
      "24": 3987,
      "Ġveh": 3988,
      "Ġcommercial": 3989,
      "Ġgoes": 3990,
      "Ġanti": 3991,
      "ĠToday": 3992,
      "ession": 3993,
      "Ġgraph": 3994,
      "ĠWeb": 3995,
      "Ġtesting": 3996,
      "Ġcoming": 3997,
      "Ġbodies": 3998,
      "Ġfigure": 3999,
      "Let": 4000,
      "Ġmer": 4001,
      "Ġeast": 4002,
      "ĠSer": 4003,
      "Ġregions": 4004,
      "23": 4005,
      "Ġdynam": 4006,
      "Ġblock": 4007,
      "ĠIS": 4008,
      "Ġsouthern": 4009,
      "pan": 4010,
      "ago": 4011,
      "Ġdetails": 4012,
      "ĠTrans": 4013,
      "Ġmoment": 4014,
      "iance": 4015,
      "Ġvia": 4016,
      "rick": 4017,
      "Ġdistribution": 4018,
      "ĠDon": 4019,
      "These": 4020,
      "Ġefficient": 4021,
      "itis": 4022,
      "off": 4023,
      "ĠSince": 4024,
      "Ġdecisions": 4025,
      "ensity": 4026,
      "Ġseparate": 4027,
      "load": 4028,
      "road": 4029,
      "rupt": 4030,
      "ĠPal": 4031,
      "Ġdevices": 4032,
      "Ġcand": 4033,
      "irection": 4034,
      "Ġded": 4035,
      "orial": 4036,
      "uild": 4037,
      "Ġrepe": 4038,
      "Ġmut": 4039,
      "Ġpeace": 4040,
      "ĠCongress": 4041,
      "ĠWestern": 4042,
      "Ġautom": 4043,
      "iff": 4044,
      "urning": 4045,
      "Ġsand": 4046,
      "change": 4047,
      "Ġprotein": 4048,
      "aid": 4049,
      "Ġseven": 4050,
      "urban": 4051,
      "Ġnegative": 4052,
      "estic": 4053,
      "Ġhair": 4054,
      "Ġchallenge": 4055,
      "Ġdestroy": 4056,
      "rieved": 4057,
      "Ġ*": 4058,
      "Ġpregn": 4059,
      "ĠMary": 4060,
      "Ġpartners": 4061,
      "ĠRev": 4062,
      "Ġidentified": 4063,
      "Ġleave": 4064,
      "Ġimag": 4065,
      "Ġpet": 4066,
      "Ġinitial": 4067,
      "Ġwoman": 4068,
      "semb": 4069,
      "Ġgoals": 4070,
      "oyal": 4071,
      "Ġtransform": 4072,
      "ĠProt": 4073,
      "udd": 4074,
      "Ġexpected": 4075,
      "Ġmig": 4076,
      "ĠUN": 4077,
      "Ġhyp": 4078,
      "ibly": 4079,
      "Ġoffice": 4080,
      "29": 4081,
      "ste": 4082,
      "Ġequal": 4083,
      "que": 4084,
      "Ġbasis": 4085,
      "Ġweb": 4086,
      "Ġconstant": 4087,
      "Ġgives": 4088,
      "ĠAddition": 4089,
      "Ġdepend": 4090,
      "Ġnorthern": 4091,
      "Ġknew": 4092,
      "Ġchanged": 4093,
      "eal": 4094,
      "Ġtour": 4095,
      "otic": 4096,
      "Ġrule": 4097,
      "Ġpurpose": 4098,
      "ero": 4099,
      "Ġserved": 4100,
      "Ġdevice": 4101,
      "issions": 4102,
      "Ġteach": 4103,
      "Ġinvolve": 4104,
      "ĠPeople": 4105,
      "Ġmission": 4106,
      "Ġpurch": 4107,
      "Ġking": 4108,
      "Ġexactly": 4109,
      "Ġtherapy": 4110,
      "Ġ2004": 4111,
      "Ġfinding": 4112,
      "Ġconnections": 4113,
      "Ġbillion": 4114,
      "acific": 4115,
      "Ġdetect": 4116,
      "Ġorganization": 4117,
      "abilities": 4118,
      "Ġlimit": 4119,
      "Ġdespite": 4120,
      "Ġcampaign": 4121,
      "Ġfields": 4122,
      "Ġfilled": 4123,
      "Ġbattle": 4124,
      "Ġcapacity": 4125,
      "ĠJesus": 4126,
      "met": 4127,
      "Ġnuclear": 4128,
      "Ġdivers": 4129,
      "ams": 4130,
      "Ġuser": 4131,
      "Ġparty": 4132,
      "ĠBi": 4133,
      "rices": 4134,
      "ĠRepublic": 4135,
      "Ġplans": 4136,
      "Ġeducational": 4137,
      "Ġwaste": 4138,
      "ĠRel": 4139,
      "###": 4140,
      "Ġtro": 4141,
      "ĠFurther": 4142,
      "ĠBlack": 4143,
      "Ġque": 4144,
      "Ġwinter": 4145,
      "Ġcompletely": 4146,
      "ĠLaw": 4147,
      "Ġrace": 4148,
      "Ġ2003": 4149,
      "Ġsurgery": 4150,
      "Ġexposure": 4151,
      "Ġassum": 4152,
      "Ġmi": 4153,
      "Ġtruth": 4154,
      "Ġfindings": 4155,
      "ĠHere": 4156,
      "ĠChapter": 4157,
      "Ġstatus": 4158,
      "Ġchoose": 4159,
      "ĠOur": 4160,
      "Ġnative": 4161,
      "ĠJapanese": 4162,
      "ĠDavid": 4163,
      "unt": 4164,
      "west": 4165,
      "ĠOld": 4166,
      "Ã¢": 4167,
      "ample": 4168,
      "enty": 4169,
      "ĠAre": 4170,
      "clus": 4171,
      "Ġdiabetes": 4172,
      "Ġpresented": 4173,
      "Ġitems": 4174,
      "icip": 4175,
      "Ġnoted": 4176,
      "Ġadvance": 4177,
      "ĠGeorge": 4178,
      "ilit": 4179,
      "Ġ29": 4180,
      "Ġteaching": 4181,
      "ologists": 4182,
      "Ġtechnologies": 4183,
      "Ġbenefit": 4184,
      "elines": 4185,
      "Ġworkers": 4186,
      "Ġmale": 4187,
      "Ġdro": 4188,
      "key": 4189,
      "Ġbecoming": 4190,
      "Ġalg": 4191,
      "ĠNav": 4192,
      "They": 4193,
      "Ġillness": 4194,
      "Ġsexual": 4195,
      "Ġsem": 4196,
      "ari": 4197,
      "Ġdivid": 4198,
      "ĠOnce": 4199,
      "Ġassist": 4200,
      "Ġperformed": 4201,
      "erved": 4202,
      "Ġfamous": 4203,
      "urric": 4204,
      "ĠEnvironment": 4205,
      "ferences": 4206,
      "Ġpromote": 4207,
      "elcome": 4208,
      "edom": 4209,
      "Ġgiving": 4210,
      "Ġconv": 4211,
      "Ġbalance": 4212,
      "Ġusers": 4213,
      "ean": 4214,
      "oma": 4215,
      "Ġalbum": 4216,
      "ternal": 4217,
      "Ġ189": 4218,
      "Ġreports": 4219,
      "gypt": 4220,
      "board": 4221,
      "Ġstore": 4222,
      "ĠEv": 4223,
      "Ġdisorder": 4224,
      "cipl": 4225,
      "Ġtrend": 4226,
      "amental": 4227,
      "Ġmap": 4228,
      "ĠMiss": 4229,
      "Ġdrugs": 4230,
      "Ġmeeting": 4231,
      "AL": 4232,
      "ĠMat": 4233,
      "Ġstaff": 4234,
      "Ġlanguages": 4235,
      "Ġcities": 4236,
      "Ġmaxim": 4237,
      "urrent": 4238,
      "ĠHIV": 4239,
      "Ġacadem": 4240,
      "ĠPublic": 4241,
      "Ġunc": 4242,
      "Ġrisks": 4243,
      "enth": 4244,
      "Ġmedicine": 4245,
      "Ġsustainable": 4246,
      "Ġpow": 4247,
      "omic": 4248,
      "Ġcurrently": 4249,
      "Ġlat": 4250,
      "Ġconcepts": 4251,
      "ĠMexico": 4252,
      "Ġbuy": 4253,
      "Ġwet": 4254,
      "Ġwrong": 4255,
      "Ġelement": 4256,
      "Ġapproximately": 4257,
      "Ġreasons": 4258,
      "21": 4259,
      "Ġdoct": 4260,
      "Ġbackground": 4261,
      "ĠProgram": 4262,
      "Ġpp": 4263,
      "Ġdoll": 4264,
      "Ġplanning": 4265,
      "Ġattract": 4266,
      "Ġrelatively": 4267,
      "ĠTom": 4268,
      "âĢ¢": 4269,
      "Ġrat": 4270,
      "Ġbuildings": 4271,
      "Ġadvanced": 4272,
      "ĠSee": 4273,
      "Ġrecommend": 4274,
      "Ġpick": 4275,
      "Ġdirection": 4276,
      "Ġoptions": 4277,
      "ĠRich": 4278,
      "iling": 4279,
      "ĠPaul": 4280,
      "ĠPacific": 4281,
      "ĠIsland": 4282,
      "Ġfeeling": 4283,
      "Ġtrib": 4284,
      "Ġnavig": 4285,
      "Ġtrust": 4286,
      "Ġmonit": 4287,
      "Ġpolicies": 4288,
      "bed": 4289,
      "ĠWind": 4290,
      "Ġalcohol": 4291,
      "force": 4292,
      "Ġdial": 4293,
      "27": 4294,
      "Ġgrand": 4295,
      "ĠAir": 4296,
      "ĠJournal": 4297,
      "Ġphilosoph": 4298,
      "Ġdegree": 4299,
      "ĠAv": 4300,
      "Ġremained": 4301,
      "Ġsolid": 4302,
      "going": 4303,
      "ĠSen": 4304,
      "ĠCouncil": 4305,
      "Ġpopulations": 4306,
      "Ġbarri": 4307,
      "ĠUnderstanding": 4308,
      "Ġround": 4309,
      "Ġbelong": 4310,
      "ĠAtl": 4311,
      "With": 4312,
      "igenous": 4313,
      "aste": 4314,
      "athy": 4315,
      "ĠMark": 4316,
      "iced": 4317,
      "ĠGreen": 4318,
      "Ġspect": 4319,
      "Ġnote": 4320,
      "Ġgeneration": 4321,
      "ĠWater": 4322,
      "Ġsolution": 4323,
      "iverse": 4324,
      "Ġsuggests": 4325,
      "Ġpieces": 4326,
      "win": 4327,
      "Ġtransfer": 4328,
      "Ġphen": 4329,
      "Ġsugar": 4330,
      "Ġacid": 4331,
      "Ġpresident": 4332,
      "Ġterrit": 4333,
      "Ġplatform": 4334,
      "Ġcompar": 4335,
      "Ġcounter": 4336,
      "HE": 4337,
      "Ġdeal": 4338,
      "ĠEgypt": 4339,
      "Ġfully": 4340,
      "ĠEvery": 4341,
      "Ġkilled": 4342,
      "Ġqual": 4343,
      "Ġthousands": 4344,
      "erate": 4345,
      "ception": 4346,
      "Ġstarting": 4347,
      "Ġteacher": 4348,
      "ĠSom": 4349,
      "Ġintroduced": 4350,
      "Ġcomprehens": 4351,
      "ĠBra": 4352,
      "ĠIts": 4353,
      "ĠProf": 4354,
      "Un": 4355,
      "Â°": 4356,
      "Ġpresence": 4357,
      "lor": 4358,
      "Ġevol": 4359,
      "Ġprice": 4360,
      "Ġcreation": 4361,
      "Ġinterpret": 4362,
      "Ġbran": 4363,
      "ĠAlso": 4364,
      "âĤ": 4365,
      "Ġflood": 4366,
      "Ġfle": 4367,
      "ented": 4368,
      "Ġunf": 4369,
      "Ġresulting": 4370,
      "alle": 4371,
      "Ġreturned": 4372,
      "book": 4373,
      "Ġradiation": 4374,
      "Ġchance": 4375,
      "Ġspecifically": 4376,
      "itz": 4377,
      "ado": 4378,
      "Ġdeeper": 4379,
      "Ġpret": 4380,
      "Ġinfluen": 4381,
      "Ġplays": 4382,
      "ĠVol": 4383,
      "Ġdefined": 4384,
      "Ġproperties": 4385,
      "ander": 4386,
      "Ġguide": 4387,
      "iveness": 4388,
      "Ġbul": 4389,
      "Ġcharacteristics": 4390,
      "Ġreligion": 4391,
      "Ġapplied": 4392,
      "house": 4393,
      "Ġthick": 4394,
      "ĠRetrieved": 4395,
      "Ġbed": 4396,
      "rogen": 4397,
      "Ġstream": 4398,
      "Ġhighest": 4399,
      "Ġliqu": 4400,
      "Ġcareer": 4401,
      "ĠBr": 4402,
      "ĠRead": 4403,
      "26": 4404,
      "Ġmessage": 4405,
      "ey": 4406,
      "Ġsharing": 4407,
      "Ġalternative": 4408,
      "ania": 4409,
      "astern": 4410,
      "ĠPort": 4411,
      "Ġsuppl": 4412,
      "Ġimagine": 4413,
      "ologist": 4414,
      "Ġidentity": 4415,
      "Ġocean": 4416,
      "ĠInf": 4417,
      "ael": 4418,
      "ault": 4419,
      "ounced": 4420,
      "Ġopportunity": 4421,
      "ĠDNA": 4422,
      "Ġcomfort": 4423,
      "Ġchart": 4424,
      "Ġprofession": 4425,
      "rating": 4426,
      "ether": 4427,
      "Ġtried": 4428,
      "Ġreference": 4429,
      "ĠSol": 4430,
      "ĠGra": 4431,
      "ĠArmy": 4432,
      "ees": 4433,
      "Ġband": 4434,
      "oted": 4435,
      "Ġprepar": 4436,
      "Ġfrequently": 4437,
      "ĠBecause": 4438,
      "Ġweak": 4439,
      "Ġjournal": 4440,
      "Ġresource": 4441,
      "Ġdram": 4442,
      "Ġhear": 4443,
      "ĠCompany": 4444,
      "ĠTex": 4445,
      "ulf": 4446,
      "Ġ186": 4447,
      "essel": 4448,
      "While": 4449,
      "Ġspent": 4450,
      "Ġsave": 4451,
      "ĠSpanish": 4452,
      "ĠSch": 4453,
      "ĠVal": 4454,
      "28": 4455,
      "Ġready": 4456,
      "Ġtum": 4457,
      "itage": 4458,
      "Ġpoly": 4459,
      "Ġinput": 4460,
      "Ġcovered": 4461,
      "Ġartists": 4462,
      "Ġexperim": 4463,
      "Ġimmediately": 4464,
      "Ġ2001": 4465,
      "**:": 4466,
      "Ġnarr": 4467,
      "Ġcontrast": 4468,
      "Ġletter": 4469,
      "Ġphysic": 4470,
      "Ġmouth": 4471,
      "ett": 4472,
      "Ġinsights": 4473,
      "Ġexperiment": 4474,
      "Ġutil": 4475,
      "That": 4476,
      "Ġcommonly": 4477,
      "70": 4478,
      "Ġtim": 4479,
      "ĠSpe": 4480,
      "Ġrang": 4481,
      "ĠDevelopment": 4482,
      "Ġeffectively": 4483,
      "Ġcontinues": 4484,
      "roup": 4485,
      "ĠGermany": 4486,
      "ĠService": 4487,
      "ny": 4488,
      "Ġ2002": 4489,
      "Ġcarried": 4490,
      "Ġvit": 4491,
      "ĠJews": 4492,
      "Ġload": 4493,
      "ĠHam": 4494,
      "Ġconnection": 4495,
      "ĠMuseum": 4496,
      "Ġsolutions": 4497,
      "Ġsociet": 4498,
      "'m": 4499,
      "ML": 4500,
      "ĠDirect": 4501,
      "Ġrefers": 4502,
      "ET": 4503,
      "Ġchanging": 4504,
      "Ġwonder": 4505,
      "Ġincome": 4506,
      "Ġsigns": 4507,
      "Ġrecorded": 4508,
      "Ġtail": 4509,
      "Ġnotes": 4510,
      "ST": 4511,
      "Ġboard": 4512,
      "works": 4513,
      "Ġpul": 4514,
      "Ġgod": 4515,
      "gl": 4516,
      "ĠUse": 4517,
      "Ġinstruct": 4518,
      "Ġcausing": 4519,
      "Ġapply": 4520,
      "Ġobserved": 4521,
      "Ġwhom": 4522,
      "Ġmathemat": 4523,
      "Ġsounds": 4524,
      "Ġdoub": 4525,
      "zing": 4526,
      "ĠHistor": 4527,
      "âĢ¦": 4528,
      "Ġhit": 4529,
      "Ġkept": 4530,
      "cers": 4531,
      "Ġbottom": 4532,
      "Ġvary": 4533,
      "Ġradio": 4534,
      "ching": 4535,
      "Ġsetting": 4536,
      "ASA": 4537,
      "Ġcopy": 4538,
      "Ġfruit": 4539,
      "Ġminor": 4540,
      "âĤ¬": 4541,
      "tical": 4542,
      "ĠAlex": 4543,
      "ĠDem": 4544,
      "ĠLa": 4545,
      "Ġunivers": 4546,
      "Ġrot": 4547,
      "Ph": 4548,
      "acing": 4549,
      "Ġmajority": 4550,
      "Ġdrive": 4551,
      "Ġtitle": 4552,
      "rian": 4553,
      "Ġurban": 4554,
      "Ġupper": 4555,
      "Ġdisp": 4556,
      "ifying": 4557,
      "Ġannual": 4558,
      "asks": 4559,
      "ĠDec": 4560,
      "Ġpreviously": 4561,
      "respond": 4562,
      "Ġlibrary": 4563,
      "Ġonto": 4564,
      "order": 4565,
      "part": 4566,
      "Ġoutput": 4567,
      "Ġcolle": 4568,
      "ĠAss": 4569,
      "ias": 4570,
      "ĠMr": 4571,
      "Ġintellig": 4572,
      "ĠPlan": 4573,
      "Ġbehavi": 4574,
      "Ġalt": 4575,
      "ĠGreek": 4576,
      "Ġupd": 4577,
      "name": 4578,
      "Ġsecret": 4579,
      "Ġproposed": 4580,
      "ĠRobert": 4581,
      "ville": 4582,
      "Ġstrength": 4583,
      "ĠFam": 4584,
      "DA": 4585,
      "Ġnoise": 4586,
      "Ġincreasingly": 4587,
      "Ġgets": 4588,
      "Ġcritic": 4589,
      "ĠCollege": 4590,
      "ĠMor": 4591,
      "Ġapproaches": 4592,
      "Ġrequirements": 4593,
      "Ġheight": 4594,
      "Ġsurvey": 4595,
      "ressive": 4596,
      "After": 4597,
      "rant": 4598,
      "Ġrepresents": 4599,
      "ht": 4600,
      "Ġestimated": 4601,
      "Ġtrou": 4602,
      "ĠHol": 4603,
      "Ġcitizens": 4604,
      "raw": 4605,
      "ĠMedical": 4606,
      "RE": 4607,
      "eff": 4608,
      "ares": 4609,
      "Ġrelevant": 4610,
      "ĠVirgin": 4611,
      "inent": 4612,
      "othes": 4613,
      "Ġfix": 4614,
      "Ġchoice": 4615,
      "nam": 4616,
      "onic": 4617,
      "Ġhomes": 4618,
      "Ġsaying": 4619,
      "ĠFound": 4620,
      "Ġhelping": 4621,
      "Ġlegis": 4622,
      "Ġdegrees": 4623,
      "Ġconclusion": 4624,
      "opy": 4625,
      "ĠUp": 4626,
      "Ġroll": 4627,
      "Ġimproved": 4628,
      "Ġreferred": 4629,
      "Ġfiction": 4630,
      "ĠTur": 4631,
      "Ġincl": 4632,
      "Ġwestern": 4633,
      "Ġclim": 4634,
      "Ġsuggested": 4635,
      "Ġlic": 4636,
      "ĠGovernment": 4637,
      "Ġreality": 4638,
      "ĠLear": 4639,
      "ĠCivil": 4640,
      "Ġexcess": 4641,
      "Ġworth": 4642,
      "Ġreducing": 4643,
      "ographic": 4644,
      "Ġdecades": 4645,
      "Ġreplace": 4646,
      "Ġdisorders": 4647,
      "Ad": 4648,
      "Ġreb": 4649,
      "Ġcomment": 4650,
      "ĠFre": 4651,
      "ĠThus": 4652,
      "Ġexpression": 4653,
      "Ġ80": 4654,
      "crib": 4655,
      "ears": 4656,
      "Ġmaster": 4657,
      "Ġcircum": 4658,
      "ĠAdditionally": 4659,
      "Ġburn": 4660,
      "Ġworldwide": 4661,
      "Ġtechnique": 4662,
      "Ġbaby": 4663,
      "Ġwall": 4664,
      "Ġgenes": 4665,
      "ĠInternet": 4666,
      "rates": 4667,
      "Ġactual": 4668,
      "Ġgar": 4669,
      "apers": 4670,
      "Ġgarden": 4671,
      "ĠTit": 4672,
      "Ġspring": 4673,
      "Ġopin": 4674,
      "ĠMars": 4675,
      "azing": 4676,
      "ĠCourt": 4677,
      "urd": 4678,
      "Ġclosely": 4679,
      "Ġprices": 4680,
      "Ġanyone": 4681,
      "Ġcompleted": 4682,
      "Ġincreases": 4683,
      "Ġvessel": 4684,
      "Ġinternal": 4685,
      "Ġfort": 4686,
      "Ġmetal": 4687,
      "Ġclearly": 4688,
      "inter": 4689,
      "ĠSal": 4690,
      "Ġappeared": 4691,
      "Some": 4692,
      "cap": 4693,
      "ciences": 4694,
      "ĠOp": 4695,
      "ĠThomas": 4696,
      "Ġmotion": 4697,
      "Ġsupported": 4698,
      "related": 4699,
      "Ġfailure": 4700,
      "ĠBoth": 4701,
      "Ġopened": 4702,
      "Ġcast": 4703,
      "umn": 4704,
      "iate": 4705,
      "Ġsample": 4706,
      "Ġregional": 4707,
      "Ġabsor": 4708,
      "Ġindependent": 4709,
      "BN": 4710,
      "ping": 4711,
      "ded": 4712,
      "ygen": 4713,
      "Ġmeant": 4714,
      "ructure": 4715,
      "Ġinstitutions": 4716,
      "Ġrul": 4717,
      "Ġsad": 4718,
      "place": 4719,
      "Ġfundamental": 4720,
      "oke": 4721,
      "osystem": 4722,
      "Ġcoral": 4723,
      "Ġbrother": 4724,
      "Ġfavorite": 4725,
      "fl": 4726,
      "Ġâ": 4727,
      "ĠWall": 4728,
      "Ġpeak": 4729,
      "Ġglass": 4730,
      "Ġdirector": 4731,
      "ributed": 4732,
      "ĠOh": 4733,
      "Ġmorning": 4734,
      "Ġcoord": 4735,
      "Ġfinally": 4736,
      "Ġscript": 4737,
      "Ġnor": 4738,
      "Ġepisode": 4739,
      "ishes": 4740,
      "Ġunits": 4741,
      "Ġadvoc": 4742,
      "Ġconsumption": 4743,
      "Ġhom": 4744,
      "Ġmentioned": 4745,
      "Ġatmosphere": 4746,
      "ĠFore": 4747,
      "Ġresistance": 4748,
      "orage": 4749,
      "Ġpu": 4750,
      "Pro": 4751,
      "Ġindustrial": 4752,
      "Ġprimarily": 4753,
      "Ġbone": 4754,
      "Ġadjust": 4755,
      "ĠScient": 4756,
      "Ġsmiled": 4757,
      "Ġreaders": 4758,
      "amm": 4759,
      "SA": 4760,
      "Ġdiscussion": 4761,
      "ĠHen": 4762,
      "aughter": 4763,
      "Ġphenomen": 4764,
      "Ġ#": 4765,
      "Ġconservation": 4766,
      "Ġconnected": 4767,
      "Ġsubsequ": 4768,
      "ĠIr": 4769,
      "ĠExpl": 4770,
      "Ġmob": 4771,
      "ulating": 4772,
      "Ar": 4773,
      "cription": 4774,
      "Ġsav": 4775,
      "well": 4776,
      "Ġspot": 4777,
      "lease": 4778,
      "utive": 4779,
      "CO": 4780,
      "Ġoperation": 4781,
      "uted": 4782,
      "riage": 4783,
      "ĠFlor": 4784,
      "Ġaid": 4785,
      "Ġdive": 4786,
      "Ġvital": 4787,
      "ocal": 4788,
      "Ġarmy": 4789,
      "Ġhappened": 4790,
      "Ġconducted": 4791,
      "ses": 4792,
      "abase": 4793,
      "Ġgenerations": 4794,
      "Ġcultures": 4795,
      "mark": 4796,
      "All": 4797,
      "Ġslightly": 4798,
      "Ġfol": 4799,
      "ĠCarol": 4800,
      "ĠTwo": 4801,
      "Ġhappen": 4802,
      "rows": 4803,
      "denly": 4804,
      "ĠTexas": 4805,
      "ĠDef": 4806,
      "Ġhappens": 4807,
      "Ġtemperatures": 4808,
      "Ġ1990": 4809,
      "ĠConf": 4810,
      "Ġexistence": 4811,
      "Ġmaintaining": 4812,
      "ĠSov": 4813,
      "Ġexperienced": 4814,
      "Ġvoice": 4815,
      "Ġbacteria": 4816,
      "Ġwidely": 4817,
      "levision": 4818,
      "Ġstars": 4819,
      "Ġemail": 4820,
      "Ġwaters": 4821,
      "Ġislands": 4822,
      "ĠFood": 4823,
      "Ġhospital": 4824,
      "Ġfoss": 4825,
      "akers": 4826,
      "Ġarrang": 4827,
      "Ġletters": 4828,
      "Ġcapable": 4829,
      "Ġvision": 4830,
      "Ġorigin": 4831,
      "Ġtissue": 4832,
      "alled": 4833,
      "ĠInstead": 4834,
      "ux": 4835,
      "Ġtreated": 4836,
      "ĠSar": 4837,
      "Ġcarefully": 4838,
      "eles": 4839,
      "Ġign": 4840,
      "Ġeasier": 4841,
      "Ġexplained": 4842,
      "Ġmovements": 4843,
      "Ġfigures": 4844,
      "bal": 4845,
      "wood": 4846,
      "ĠArab": 4847,
      "Ġdisapp": 4848,
      "Ġsky": 4849,
      "ager": 4850,
      "ĠCommission": 4851,
      "Ġfif": 4852,
      "ĠProject": 4853,
      "Ġpaint": 4854,
      "ĠCentral": 4855,
      "Ġelev": 4856,
      "Ġtox": 4857,
      "uses": 4858,
      "exp": 4859,
      "Ġcorrespond": 4860,
      "ira": 4861,
      "Ġbrief": 4862,
      "ormal": 4863,
      "Is": 4864,
      "Ġhun": 4865,
      "aph": 4866,
      "Ġintended": 4867,
      "comes": 4868,
      "ĠHuman": 4869,
      "osen": 4870,
      "rome": 4871,
      "ogen": 4872,
      "Ġagg": 4873,
      "Imagine": 4874,
      "ii": 4875,
      "Ġcris": 4876,
      "ĠSun": 4877,
      "Ġvast": 4878,
      "ĠLou": 4879,
      "Ġmere": 4880,
      "ishing": 4881,
      "Ġju": 4882,
      "Ġpages": 4883,
      "Ġhousehold": 4884,
      "idden": 4885,
      "Ġhour": 4886,
      "osa": 4887,
      "Ġpoet": 4888,
      "Ġplayer": 4889,
      "unction": 4890,
      "Ġawareness": 4891,
      "ĠBay": 4892,
      "Ġselection": 4893,
      "EC": 4894,
      "Ġ%": 4895,
      "Ġleaving": 4896,
      "ĠNews": 4897,
      "ota": 4898,
      "Ġtask": 4899,
      "Ġcook": 4900,
      "Ġpray": 4901,
      "Ġbatter": 4902,
      "ĠLatin": 4903,
      "Ġspeech": 4904,
      "Ġphase": 4905,
      "fered": 4906,
      "Ġparticipants": 4907,
      "ĠWhite": 4908,
      "ding": 4909,
      "Ġlessons": 4910,
      "Ġfactor": 4911,
      "Ġparam": 4912,
      "ĠPhys": 4913,
      "Ġappoint": 4914,
      "Ġbreast": 4915,
      "Ġoccurred": 4916,
      "ĠMedicine": 4917,
      "Ġelectricity": 4918,
      "Ġ35": 4919,
      "ĠEnergy": 4920,
      "Ġexcited": 4921,
      "ĠId": 4922,
      "ĠHall": 4923,
      "Ġengage": 4924,
      "Ġfocused": 4925,
      "ta": 4926,
      "Ġcollege": 4927,
      "hetic": 4928,
      "Ġsets": 4929,
      "ĠEmp": 4930,
      "Ġexperts": 4931,
      "Ġremoved": 4932,
      "Ġsusp": 4933,
      "cont": 4934,
      "ipped": 4935,
      "Ġcareful": 4936,
      "iable": 4937,
      "ĠSpace": 4938,
      "Ġinsect": 4939,
      "Int": 4940,
      "Ġbank": 4941,
      "ĠChe": 4942,
      "ibilities": 4943,
      "Ġmilk": 4944,
      "ĠSy": 4945,
      "Ġconclud": 4946,
      "Ġclinical": 4947,
      "Ġcloser": 4948,
      "Res": 4949,
      "ĠCam": 4950,
      "ĠBas": 4951,
      "Ġquar": 4952,
      "Ġ70": 4953,
      "Ġisol": 4954,
      "Ġexpert": 4955,
      "raction": 4956,
      "Ġtub": 4957,
      "ressed": 4958,
      "Ġprocessing": 4959,
      "Ġperiods": 4960,
      "Ġrh": 4961,
      "lick": 4962,
      "Ġinterview": 4963,
      "Ġcombined": 4964,
      "ĠBritain": 4965,
      "Ġships": 4966,
      "ĠFranc": 4967,
      "Here": 4968,
      "Ġwife": 4969,
      "Ġcenturies": 4970,
      "Ġcere": 4971,
      "Ġgather": 4972,
      "Ġsud": 4973,
      "Ġchann": 4974,
      "za": 4975,
      "atically": 4976,
      "Ġarrived": 4977,
      "with": 4978,
      "Ġcouldn": 4979,
      "Ġoffered": 4980,
      "ĠMac": 4981,
      "rence": 4982,
      "Ġtransl": 4983,
      "Ġensuring": 4984,
      "Ġkid": 4985,
      "ĠMart": 4986,
      "Ġfacilit": 4987,
      "Ġimmune": 4988,
      "ellect": 4989,
      "ĠJer": 4990,
      "Ġplayers": 4991,
      "nic": 4992,
      "Ġmel": 4993,
      "Ġoxygen": 4994,
      "Ġbatt": 4995,
      "Ġformation": 4996,
      "ĠWhy": 4997,
      "Ġpossess": 4998,
      "Ġelim": 4999
    },
    "merges": [
      [
        "Ġ",
        "t"
      ],
      [
        "Ġ",
        "a"
      ],
      [
        "h",
        "e"
      ],
      [
        "i",
        "n"
      ],
      [
        "r",
        "e"
      ],
      [
        "o",
        "n"
      ],
      [
        "Ġt",
        "he"
      ],
      [
        "e",
        "r"
      ],
      [
        "Ġ",
        "s"
      ],
      [
        "a",
        "t"
      ],
      [
        "Ġ",
        "o"
      ],
      [
        "e",
        "n"
      ],
      [
        "Ġ",
        "c"
      ],
      [
        "e",
        "s"
      ],
      [
        "Ġ",
        "w"
      ],
      [
        "n",
        "d"
      ],
      [
        "i",
        "t"
      ],
      [
        "i",
        "s"
      ],
      [
        "o",
        "r"
      ],
      [
        "č",
        "Ċ"
      ],
      [
        "a",
        "l"
      ],
      [
        "e",
        "d"
      ],
      [
        "Ġ",
        "p"
      ],
      [
        "in",
        "g"
      ],
      [
        "Ġ",
        "f"
      ],
      [
        "Ġ",
        "b"
      ],
      [
        "a",
        "n"
      ],
      [
        "Ġo",
        "f"
      ],
      [
        "a",
        "r"
      ],
      [
        "Ġ",
        "in"
      ],
      [
        "o",
        "u"
      ],
      [
        "Ġa",
        "nd"
      ],
      [
        "Ġ",
        "m"
      ],
      [
        "i",
        "c"
      ],
      [
        "Ġt",
        "o"
      ],
      [
        "i",
        "on"
      ],
      [
        "Ġ",
        "d"
      ],
      [
        "l",
        "e"
      ],
      [
        "r",
        "o"
      ],
      [
        "a",
        "s"
      ],
      [
        "Ġ",
        "h"
      ],
      [
        "en",
        "t"
      ],
      [
        "Ġt",
        "h"
      ],
      [
        "Ġ",
        "e"
      ],
      [
        "c",
        "t"
      ],
      [
        "Ġ",
        "re"
      ],
      [
        "i",
        "l"
      ],
      [
        "o",
        "m"
      ],
      [
        "Ġ",
        "l"
      ],
      [
        "s",
        "t"
      ],
      [
        "v",
        "e"
      ],
      [
        "Ġ",
        "n"
      ],
      [
        "l",
        "y"
      ],
      [
        "Ġ",
        "T"
      ],
      [
        "e",
        "t"
      ],
      [
        "o",
        "l"
      ],
      [
        "Ġ",
        "g"
      ],
      [
        "at",
        "ion"
      ],
      [
        "i",
        "m"
      ],
      [
        "i",
        "d"
      ],
      [
        "s",
        "e"
      ],
      [
        "Ġb",
        "e"
      ],
      [
        "c",
        "e"
      ],
      [
        "u",
        "r"
      ],
      [
        "u",
        "t"
      ],
      [
        "r",
        "a"
      ],
      [
        "u",
        "n"
      ],
      [
        "Ġ",
        "A"
      ],
      [
        "Ġ",
        "is"
      ],
      [
        "Ġ",
        "S"
      ],
      [
        "o",
        "w"
      ],
      [
        "i",
        "g"
      ],
      [
        "c",
        "h"
      ],
      [
        "o",
        "t"
      ],
      [
        "Ġf",
        "or"
      ],
      [
        "v",
        "er"
      ],
      [
        "Ġ",
        "on"
      ],
      [
        "Ġ",
        "C"
      ],
      [
        "Ġs",
        "t"
      ],
      [
        "i",
        "r"
      ],
      [
        "Ġth",
        "at"
      ],
      [
        "Ġ",
        "I"
      ],
      [
        "a",
        "m"
      ],
      [
        "a",
        "y"
      ],
      [
        "u",
        "l"
      ],
      [
        "a",
        "d"
      ],
      [
        "u",
        "s"
      ],
      [
        "e",
        "l"
      ],
      [
        "it",
        "h"
      ],
      [
        "he",
        "r"
      ],
      [
        "Ġ",
        "y"
      ],
      [
        "Ġa",
        "s"
      ],
      [
        "Ġc",
        "on"
      ],
      [
        "â",
        "Ģ"
      ],
      [
        "Ġw",
        "ith"
      ],
      [
        "Ġp",
        "ro"
      ],
      [
        "t",
        "er"
      ],
      [
        "Ġ",
        "M"
      ],
      [
        "Ġw",
        "h"
      ],
      [
        "i",
        "f"
      ],
      [
        "Ġa",
        "n"
      ],
      [
        "Ġ",
        "1"
      ],
      [
        "ĠT",
        "he"
      ],
      [
        "Ġ",
        "it"
      ],
      [
        "Ġo",
        "r"
      ],
      [
        "Ġa",
        "l"
      ],
      [
        "o",
        "d"
      ],
      [
        "Ġ",
        "("
      ],
      [
        "Ġ",
        "P"
      ],
      [
        "is",
        "t"
      ],
      [
        "t",
        "h"
      ],
      [
        "e",
        "m"
      ],
      [
        "i",
        "es"
      ],
      [
        "Ġ",
        "B"
      ],
      [
        "er",
        "s"
      ],
      [
        "Ġa",
        "re"
      ],
      [
        "a",
        "g"
      ],
      [
        "Ġy",
        "ou"
      ],
      [
        "Ġ",
        "he"
      ],
      [
        "Ġe",
        "x"
      ],
      [
        "at",
        "e"
      ],
      [
        "o",
        "p"
      ],
      [
        "Ġ",
        "H"
      ],
      [
        "Ġ",
        ","
      ],
      [
        "re",
        "s"
      ],
      [
        "u",
        "m"
      ],
      [
        "a",
        "b"
      ],
      [
        "es",
        "s"
      ],
      [
        "Ġc",
        "om"
      ],
      [
        "Ġd",
        "e"
      ],
      [
        "Ġw",
        "as"
      ],
      [
        "e",
        "re"
      ],
      [
        "a",
        "c"
      ],
      [
        "e",
        "ct"
      ],
      [
        "a",
        "nd"
      ],
      [
        "il",
        "l"
      ],
      [
        "r",
        "i"
      ],
      [
        "o",
        "re"
      ],
      [
        "it",
        "y"
      ],
      [
        "es",
        "t"
      ],
      [
        "l",
        "d"
      ],
      [
        "o",
        "s"
      ],
      [
        "Ġ",
        "W"
      ],
      [
        "Ġ",
        "v"
      ],
      [
        "m",
        "ent"
      ],
      [
        "Ġb",
        "y"
      ],
      [
        "q",
        "u"
      ],
      [
        "p",
        "p"
      ],
      [
        "a",
        "in"
      ],
      [
        "ro",
        "m"
      ],
      [
        "k",
        "e"
      ],
      [
        "Ġs",
        "u"
      ],
      [
        "Ġa",
        "t"
      ],
      [
        "i",
        "ve"
      ],
      [
        "ig",
        "h"
      ],
      [
        "Ġ",
        "D"
      ],
      [
        "an",
        "t"
      ],
      [
        "Ġ",
        "R"
      ],
      [
        "i",
        "v"
      ],
      [
        "Ġ",
        "."
      ],
      [
        "Ġ",
        "F"
      ],
      [
        "Ġ",
        "u"
      ],
      [
        "Ġ",
        "E"
      ],
      [
        "Ġs",
        "e"
      ],
      [
        "c",
        "i"
      ],
      [
        "Ġc",
        "h"
      ],
      [
        "Ġf",
        "rom"
      ],
      [
        "or",
        "t"
      ],
      [
        "u",
        "d"
      ],
      [
        "Ġh",
        "a"
      ],
      [
        "Ġn",
        "e"
      ],
      [
        "Ġ",
        "r"
      ],
      [
        "Ġ",
        "2"
      ],
      [
        "Ġ",
        "\""
      ],
      [
        "Ġ",
        "N"
      ],
      [
        "ic",
        "al"
      ],
      [
        "u",
        "re"
      ],
      [
        "n",
        "t"
      ],
      [
        "un",
        "k"
      ],
      [
        "ar",
        "t"
      ],
      [
        "Ġ",
        "L"
      ],
      [
        "Ġ",
        "le"
      ],
      [
        "Ġ",
        "G"
      ],
      [
        "Ġ",
        "<"
      ],
      [
        "al",
        "l"
      ],
      [
        "Ġ",
        "en"
      ],
      [
        "r",
        "ou"
      ],
      [
        "Ġc",
        "an"
      ],
      [
        "Ġs",
        "h"
      ],
      [
        "Ġs",
        "p"
      ],
      [
        "'",
        "s"
      ],
      [
        "igh",
        "t"
      ],
      [
        "g",
        "h"
      ],
      [
        "Ġn",
        "ot"
      ],
      [
        "a",
        "p"
      ],
      [
        "o",
        "g"
      ],
      [
        "0",
        "0"
      ],
      [
        "ion",
        "s"
      ],
      [
        "ou",
        "t"
      ],
      [
        "g",
        "e"
      ],
      [
        "Ġa",
        "b"
      ],
      [
        "Ġha",
        "ve"
      ],
      [
        "in",
        "e"
      ],
      [
        "ou",
        "r"
      ],
      [
        "ar",
        "d"
      ],
      [
        "Ġ",
        "O"
      ],
      [
        "Ġp",
        "l"
      ],
      [
        "-",
        "-"
      ],
      [
        "om",
        "e"
      ],
      [
        "Ġin",
        "t"
      ],
      [
        "Ġth",
        "is"
      ],
      [
        "p",
        "l"
      ],
      [
        "ou",
        "ld"
      ],
      [
        "Ġw",
        "e"
      ],
      [
        "ic",
        "h"
      ],
      [
        "Ġw",
        "or"
      ],
      [
        "o",
        "c"
      ],
      [
        "u",
        "st"
      ],
      [
        "t",
        "her"
      ],
      [
        "at",
        "ed"
      ],
      [
        "Ġ",
        "J"
      ],
      [
        "p",
        "t"
      ],
      [
        "o",
        "st"
      ],
      [
        "Ġ",
        "im"
      ],
      [
        "Ġthe",
        "ir"
      ],
      [
        "ou",
        "s"
      ],
      [
        "Ġ",
        "us"
      ],
      [
        "a",
        "re"
      ],
      [
        "i",
        "z"
      ],
      [
        "el",
        "l"
      ],
      [
        "as",
        "t"
      ],
      [
        "Ġ",
        "U"
      ],
      [
        "a",
        "ct"
      ],
      [
        "Ġw",
        "he"
      ],
      [
        "a",
        "k"
      ],
      [
        "p",
        "er"
      ],
      [
        "on",
        "g"
      ],
      [
        "Ġa",
        "d"
      ],
      [
        "Ġ",
        "k"
      ],
      [
        "f",
        "f"
      ],
      [
        "ation",
        "s"
      ],
      [
        "an",
        "s"
      ],
      [
        "e",
        "ar"
      ],
      [
        "id",
        "e"
      ],
      [
        "Ġcon",
        "t"
      ],
      [
        "al",
        "ly"
      ],
      [
        "ul",
        "t"
      ],
      [
        "ĠI",
        "n"
      ],
      [
        "d",
        "u"
      ],
      [
        "T",
        "he"
      ],
      [
        "en",
        "d"
      ],
      [
        "Ġthe",
        "y"
      ],
      [
        "Ġin",
        "c"
      ],
      [
        "e",
        "w"
      ],
      [
        "ar",
        "y"
      ],
      [
        "Ġcom",
        "p"
      ],
      [
        "Ġ",
        "âĢ"
      ],
      [
        "Ġs",
        "o"
      ],
      [
        "i",
        "b"
      ],
      [
        "Ġwh",
        "ich"
      ],
      [
        "c",
        "c"
      ],
      [
        "Ġd",
        "is"
      ],
      [
        "Ġre",
        "s"
      ],
      [
        "s",
        "o"
      ],
      [
        "Ġ",
        "un"
      ],
      [
        "or",
        "m"
      ],
      [
        "Ġal",
        "l"
      ],
      [
        "ag",
        "e"
      ],
      [
        "o",
        "od"
      ],
      [
        "âĢ",
        "Ļ"
      ],
      [
        "r",
        "u"
      ],
      [
        "Ġ1",
        "9"
      ],
      [
        "ve",
        "l"
      ],
      [
        "Ġyou",
        "r"
      ],
      [
        "i",
        "a"
      ],
      [
        "i",
        "p"
      ],
      [
        "ĠT",
        "h"
      ],
      [
        "an",
        "ce"
      ],
      [
        "ab",
        "le"
      ],
      [
        "Ġw",
        "ere"
      ],
      [
        "Ġh",
        "is"
      ],
      [
        "k",
        "s"
      ],
      [
        "i",
        "re"
      ],
      [
        "Ġc",
        "l"
      ],
      [
        "i",
        "al"
      ],
      [
        "in",
        "d"
      ],
      [
        "e",
        "c"
      ],
      [
        "r",
        "y"
      ],
      [
        "en",
        "ce"
      ],
      [
        "ent",
        "s"
      ],
      [
        "at",
        "er"
      ],
      [
        "Ġm",
        "ore"
      ],
      [
        "Ġo",
        "ther"
      ],
      [
        "Ġb",
        "ut"
      ],
      [
        "ig",
        "n"
      ],
      [
        "e",
        "p"
      ],
      [
        "Ġh",
        "as"
      ],
      [
        "Ġm",
        "an"
      ],
      [
        "Ġd",
        "o"
      ],
      [
        "Ġw",
        "ill"
      ],
      [
        "a",
        "v"
      ],
      [
        "Ġa",
        "r"
      ],
      [
        "a",
        "ch"
      ],
      [
        "res",
        "s"
      ],
      [
        "Ġm",
        "e"
      ],
      [
        "b",
        "er"
      ],
      [
        "Ġp",
        "er"
      ],
      [
        "Ġ",
        "j"
      ],
      [
        "Ġt",
        "e"
      ],
      [
        "am",
        "e"
      ],
      [
        "re",
        "at"
      ],
      [
        "o",
        "o"
      ],
      [
        "il",
        "d"
      ],
      [
        "Ġon",
        "e"
      ],
      [
        "Ġ",
        "="
      ],
      [
        "ct",
        "ion"
      ],
      [
        "Ġab",
        "out"
      ],
      [
        "ĠS",
        "t"
      ],
      [
        "Ġa",
        "pp"
      ],
      [
        "as",
        "s"
      ],
      [
        "ic",
        "e"
      ],
      [
        "Ġim",
        "p"
      ],
      [
        "Ġwh",
        "o"
      ],
      [
        "Ġe",
        "v"
      ],
      [
        "ver",
        "y"
      ],
      [
        "im",
        "e"
      ],
      [
        "or",
        "y"
      ],
      [
        "c",
        "es"
      ],
      [
        "Ġp",
        "re"
      ],
      [
        "ac",
        "k"
      ],
      [
        "it",
        "ion"
      ],
      [
        "on",
        "e"
      ],
      [
        "Ġo",
        "ut"
      ],
      [
        "or",
        "d"
      ],
      [
        "i",
        "ke"
      ],
      [
        "a",
        "ce"
      ],
      [
        "Ġp",
        "art"
      ],
      [
        "Ġu",
        "p"
      ],
      [
        "a",
        "ke"
      ],
      [
        "i",
        "le"
      ],
      [
        "ou",
        "nd"
      ],
      [
        "or",
        "s"
      ],
      [
        "Ġcom",
        "m"
      ],
      [
        "is",
        "h"
      ],
      [
        "en",
        "s"
      ],
      [
        "as",
        "e"
      ],
      [
        "an",
        "g"
      ],
      [
        "u",
        "e"
      ],
      [
        "a",
        "u"
      ],
      [
        "Ġal",
        "so"
      ],
      [
        "ou",
        "nt"
      ],
      [
        "ĠC",
        "h"
      ],
      [
        "nd",
        "er"
      ],
      [
        "f",
        "orm"
      ],
      [
        "Ġint",
        "o"
      ],
      [
        "Ġh",
        "ad"
      ],
      [
        "i",
        "e"
      ],
      [
        "Ġs",
        "a"
      ],
      [
        "u",
        "b"
      ],
      [
        "r",
        "it"
      ],
      [
        "Ġthe",
        "m"
      ],
      [
        "o",
        "se"
      ],
      [
        "r",
        "ic"
      ],
      [
        "rou",
        "gh"
      ],
      [
        "ol",
        "og"
      ],
      [
        "ow",
        "n"
      ],
      [
        "Ġit",
        "s"
      ],
      [
        "m",
        "er"
      ],
      [
        "ing",
        "s"
      ],
      [
        "Ġ",
        "čĊ"
      ],
      [
        "Ġ",
        "K"
      ],
      [
        "l",
        "ow"
      ],
      [
        "Ġbe",
        "c"
      ],
      [
        "re",
        "e"
      ],
      [
        "Ġp",
        "e"
      ],
      [
        "ou",
        "gh"
      ],
      [
        "i",
        "an"
      ],
      [
        "Ġthe",
        "se"
      ],
      [
        "Ġs",
        "ome"
      ],
      [
        "Ġ",
        "qu"
      ],
      [
        "Ġs",
        "y"
      ],
      [
        "Ġ",
        "ro"
      ],
      [
        "ay",
        "s"
      ],
      [
        "Ġa",
        "g"
      ],
      [
        "ĠI",
        "t"
      ],
      [
        "u",
        "al"
      ],
      [
        "Ġst",
        "ud"
      ],
      [
        "at",
        "es"
      ],
      [
        "Ġt",
        "ra"
      ],
      [
        "Ġm",
        "ay"
      ],
      [
        "Ġth",
        "an"
      ],
      [
        "it",
        "e"
      ],
      [
        "Ġre",
        "c"
      ],
      [
        "Ġwhe",
        "n"
      ],
      [
        "er",
        "v"
      ],
      [
        ")",
        "."
      ],
      [
        "Ġk",
        "n"
      ],
      [
        "Ġthe",
        "re"
      ],
      [
        "on",
        "d"
      ],
      [
        "Ġt",
        "ime"
      ],
      [
        "ver",
        "s"
      ],
      [
        "Ġl",
        "ike"
      ],
      [
        "Ġbe",
        "en"
      ],
      [
        "p",
        "h"
      ],
      [
        "f",
        "ere"
      ],
      [
        "a",
        "il"
      ],
      [
        "on",
        "s"
      ],
      [
        "Ġc",
        "ol"
      ],
      [
        "l",
        "ud"
      ],
      [
        "Ġ",
        "'"
      ],
      [
        "Ġo",
        "ver"
      ],
      [
        "Ġg",
        "o"
      ],
      [
        "Ġy",
        "ear"
      ],
      [
        "if",
        "ic"
      ],
      [
        "Ġin",
        "d"
      ],
      [
        "Ġu",
        "nder"
      ],
      [
        "Ġb",
        "et"
      ],
      [
        "ter",
        "n"
      ],
      [
        "it",
        "ies"
      ],
      [
        "Ġ",
        "V"
      ],
      [
        "at",
        "ing"
      ],
      [
        "Ġ",
        "ra"
      ],
      [
        "ir",
        "st"
      ],
      [
        "Ġd",
        "es"
      ],
      [
        "Ġ",
        "3"
      ],
      [
        "Ġt",
        "w"
      ],
      [
        "Ġh",
        "ow"
      ],
      [
        "k",
        "ing"
      ],
      [
        "l",
        "l"
      ],
      [
        "o",
        "ve"
      ],
      [
        "t",
        "s"
      ],
      [
        "he",
        "d"
      ],
      [
        "Ġcon",
        "s"
      ],
      [
        "p",
        "e"
      ],
      [
        "ĠH",
        "e"
      ],
      [
        "Ġ",
        "@"
      ],
      [
        "w",
        "e"
      ],
      [
        "--",
        "--"
      ],
      [
        "op",
        "le"
      ],
      [
        "l",
        "es"
      ],
      [
        "m",
        "s"
      ],
      [
        "i",
        "ous"
      ],
      [
        "t",
        "e"
      ],
      [
        "re",
        "d"
      ],
      [
        "le",
        "ct"
      ],
      [
        "ur",
        "ing"
      ],
      [
        "Ġne",
        "w"
      ],
      [
        "l",
        "ic"
      ],
      [
        "Ġw",
        "ould"
      ],
      [
        "âĢ",
        "Ŀ"
      ],
      [
        "Ġsu",
        "ch"
      ],
      [
        "Ġ",
        "Y"
      ],
      [
        "Ġre",
        "l"
      ],
      [
        "ĠTh",
        "is"
      ],
      [
        "Ġ",
        "her"
      ],
      [
        "o",
        "v"
      ],
      [
        "n",
        "ing"
      ],
      [
        "rou",
        "nd"
      ],
      [
        "Ġd",
        "if"
      ],
      [
        "ro",
        "w"
      ],
      [
        "re",
        "n"
      ],
      [
        "Ġinc",
        "lud"
      ],
      [
        "Ġs",
        "c"
      ],
      [
        "Ġg",
        "en"
      ],
      [
        "y",
        "s"
      ],
      [
        "p",
        "le"
      ],
      [
        "Ġa",
        "cc"
      ],
      [
        "ci",
        "al"
      ],
      [
        "Ġ2",
        "00"
      ],
      [
        "Ġa",
        "ct"
      ],
      [
        "Ġth",
        "rough"
      ],
      [
        "Ġo",
        "ur"
      ],
      [
        "ation",
        "al"
      ],
      [
        "Ġb",
        "l"
      ],
      [
        "o",
        "b"
      ],
      [
        "vel",
        "op"
      ],
      [
        "j",
        "ect"
      ],
      [
        "Ġpe",
        "ople"
      ],
      [
        "ĠU",
        "n"
      ],
      [
        "c",
        "ed"
      ],
      [
        "Ġt",
        "r"
      ],
      [
        "n",
        "e"
      ],
      [
        "Ġf",
        "irst"
      ],
      [
        "Ġof",
        "f"
      ],
      [
        "Ġf",
        "e"
      ],
      [
        "ri",
        "b"
      ],
      [
        "au",
        "se"
      ],
      [
        "f",
        "ter"
      ],
      [
        "f",
        "ul"
      ],
      [
        "st",
        "em"
      ],
      [
        "Ġtw",
        "o"
      ],
      [
        "Ġu",
        "se"
      ],
      [
        "al",
        "s"
      ],
      [
        "Ġm",
        "ost"
      ],
      [
        "Ġwh",
        "at"
      ],
      [
        "Ġre",
        "p"
      ],
      [
        "Ġa",
        "m"
      ],
      [
        "al",
        "th"
      ],
      [
        "ic",
        "s"
      ],
      [
        "Ġn",
        "o"
      ],
      [
        "at",
        "ive"
      ],
      [
        "ar",
        "k"
      ],
      [
        "Ġ",
        "if"
      ],
      [
        "u",
        "res"
      ],
      [
        "Ġe",
        "m"
      ],
      [
        "ment",
        "s"
      ],
      [
        "at",
        "h"
      ],
      [
        "Ġhe",
        "l"
      ],
      [
        "Ġre",
        "g"
      ],
      [
        "Ġan",
        "y"
      ],
      [
        "ul",
        "ar"
      ],
      [
        "oo",
        "k"
      ],
      [
        "Ġ2",
        "0"
      ],
      [
        "Ġc",
        "o"
      ],
      [
        "c",
        "ess"
      ],
      [
        "Ġe",
        "ff"
      ],
      [
        "Ġpro",
        "v"
      ],
      [
        "Ġp",
        "h"
      ],
      [
        "Ġp",
        "o"
      ],
      [
        "is",
        "e"
      ],
      [
        "Ġhel",
        "p"
      ],
      [
        "il",
        "y"
      ],
      [
        "ot",
        "h"
      ],
      [
        "Ġs",
        "ur"
      ],
      [
        "Ġon",
        "ly"
      ],
      [
        "Ġre",
        "m"
      ],
      [
        "Ġwor",
        "k"
      ],
      [
        "Ġde",
        "velop"
      ],
      [
        "ĠâĢ",
        "ľ"
      ],
      [
        "Ġpro",
        "du"
      ],
      [
        "Ġat",
        "t"
      ],
      [
        "Ġ",
        "-"
      ],
      [
        "Ġde",
        "c"
      ],
      [
        "Ġa",
        "c"
      ],
      [
        "ol",
        "d"
      ],
      [
        "Ġne",
        "ed"
      ],
      [
        "he",
        "n"
      ],
      [
        "in",
        "t"
      ],
      [
        "we",
        "en"
      ],
      [
        ")",
        ","
      ],
      [
        "Ġex",
        "p"
      ],
      [
        "i",
        "ed"
      ],
      [
        "as",
        "ed"
      ],
      [
        "Ġs",
        "m"
      ],
      [
        "Ġin",
        "v"
      ],
      [
        "et",
        "h"
      ],
      [
        "u",
        "c"
      ],
      [
        "os",
        "s"
      ],
      [
        "er",
        "m"
      ],
      [
        "is",
        "s"
      ],
      [
        "Ġman",
        "y"
      ],
      [
        "Ġus",
        "ed"
      ],
      [
        "Ġc",
        "ould"
      ],
      [
        "-",
        "@"
      ],
      [
        "Ġo",
        "b"
      ],
      [
        "Ġ@",
        "-@"
      ],
      [
        "Ġad",
        "d"
      ],
      [
        "Ġbet",
        "ween"
      ],
      [
        "he",
        "s"
      ],
      [
        "se",
        "l"
      ],
      [
        "f",
        "ore"
      ],
      [
        "il",
        "ity"
      ],
      [
        "Ġsa",
        "id"
      ],
      [
        "ad",
        "e"
      ],
      [
        "ra",
        "ct"
      ],
      [
        "Ġf",
        "l"
      ],
      [
        "t",
        "en"
      ],
      [
        "it",
        "ed"
      ],
      [
        "Ġs",
        "he"
      ],
      [
        "Ġdif",
        "fere"
      ],
      [
        "l",
        "and"
      ],
      [
        "Ġp",
        "r"
      ],
      [
        "Ġ",
        "4"
      ],
      [
        "g",
        "an"
      ],
      [
        "ow",
        "er"
      ],
      [
        "t",
        "ing"
      ],
      [
        "Ġin",
        "st"
      ],
      [
        "Ġwhe",
        "re"
      ],
      [
        "t",
        "ain"
      ],
      [
        "n",
        "g"
      ],
      [
        "w",
        "n"
      ],
      [
        "Ġsy",
        "stem"
      ],
      [
        "Ġin",
        "ter"
      ],
      [
        "if",
        "e"
      ],
      [
        "Ġsu",
        "b"
      ],
      [
        "ut",
        "ion"
      ],
      [
        "o",
        "y"
      ],
      [
        "Ġch",
        "ild"
      ],
      [
        "ra",
        "m"
      ],
      [
        "ere",
        "d"
      ],
      [
        "ur",
        "al"
      ],
      [
        "x",
        "t"
      ],
      [
        "ĠA",
        "s"
      ],
      [
        "Ġsu",
        "pp"
      ],
      [
        "Ġe",
        "ar"
      ],
      [
        "Ġ",
        "Ġ"
      ],
      [
        "ib",
        "le"
      ],
      [
        "Ġc",
        "all"
      ],
      [
        "Ġ",
        "5"
      ],
      [
        "Ġb",
        "u"
      ],
      [
        "mer",
        "ic"
      ],
      [
        "ar",
        "ch"
      ],
      [
        "Ġin",
        "f"
      ],
      [
        "in",
        "es"
      ],
      [
        "b",
        "le"
      ],
      [
        "Ġd",
        "i"
      ],
      [
        "Ġsp",
        "ec"
      ],
      [
        "ic",
        "t"
      ],
      [
        "ist",
        "s"
      ],
      [
        "id",
        "ent"
      ],
      [
        "e",
        "ver"
      ],
      [
        "Ġp",
        "res"
      ],
      [
        "c",
        "y"
      ],
      [
        "g",
        "et"
      ],
      [
        "I",
        "n"
      ],
      [
        "o",
        "ol"
      ],
      [
        "an",
        "ge"
      ],
      [
        "ch",
        "n"
      ],
      [
        "Ġp",
        "ers"
      ],
      [
        "Ġfor",
        "m"
      ],
      [
        "it",
        "s"
      ],
      [
        "is",
        "m"
      ],
      [
        "ĠâĢ",
        "ĵ"
      ],
      [
        "ic",
        "k"
      ],
      [
        "Ġm",
        "od"
      ],
      [
        "Ġh",
        "igh"
      ],
      [
        "Ġyear",
        "s"
      ],
      [
        "Ġex",
        "am"
      ],
      [
        "Ġn",
        "um"
      ],
      [
        "Ġ1",
        "8"
      ],
      [
        "f",
        "t"
      ],
      [
        "Ġtr",
        "ans"
      ],
      [
        "t",
        "le"
      ],
      [
        "u",
        "ch"
      ],
      [
        "v",
        "ent"
      ],
      [
        "Ġex",
        "pl"
      ],
      [
        "w",
        "ard"
      ],
      [
        "Ġdis",
        "c"
      ],
      [
        "'",
        "t"
      ],
      [
        "ĠThe",
        "y"
      ],
      [
        "Ġw",
        "ell"
      ],
      [
        "ĠA",
        "meric"
      ],
      [
        "Ġc",
        "ent"
      ],
      [
        "ur",
        "n"
      ],
      [
        "Ġf",
        "ound"
      ],
      [
        "ak",
        "ing"
      ],
      [
        "Ġa",
        "fter"
      ],
      [
        "a",
        "w"
      ],
      [
        "Ġp",
        "ol"
      ],
      [
        "olog",
        "y"
      ],
      [
        "Ġd",
        "uring"
      ],
      [
        "ce",
        "pt"
      ],
      [
        "Ġe",
        "very"
      ],
      [
        "u",
        "es"
      ],
      [
        "Ġwor",
        "ld"
      ],
      [
        "at",
        "ure"
      ],
      [
        "ĠR",
        "e"
      ],
      [
        "Ġs",
        "im"
      ],
      [
        "Ġv",
        "ar"
      ],
      [
        "Ġs",
        "ign"
      ],
      [
        "Ġw",
        "ater"
      ],
      [
        ".",
        "\""
      ],
      [
        "iv",
        "es"
      ],
      [
        "n",
        "ess"
      ],
      [
        "ol",
        "low"
      ],
      [
        "Ġex",
        "per"
      ],
      [
        "in",
        "s"
      ],
      [
        "ot",
        "her"
      ],
      [
        "Ġev",
        "en"
      ],
      [
        "on",
        "t"
      ],
      [
        "Ġthe",
        "n"
      ],
      [
        "Ġkn",
        "ow"
      ],
      [
        "c",
        "er"
      ],
      [
        "form",
        "ation"
      ],
      [
        "Ġm",
        "ed"
      ],
      [
        "Ġres",
        "p"
      ],
      [
        "Ġpl",
        "ay"
      ],
      [
        "p",
        "s"
      ],
      [
        "i",
        "ew"
      ],
      [
        "Ġre",
        "se"
      ],
      [
        "Ġc",
        "re"
      ],
      [
        "Ġgen",
        "er"
      ],
      [
        "in",
        "k"
      ],
      [
        "Ġle",
        "ar"
      ],
      [
        "ĠA",
        "l"
      ],
      [
        "v",
        "ed"
      ],
      [
        "Ġsh",
        "ould"
      ],
      [
        "Ġe",
        "ach"
      ],
      [
        "Ġj",
        "ust"
      ],
      [
        "Ġhe",
        "alth"
      ],
      [
        "om",
        "m"
      ],
      [
        "ant",
        "s"
      ],
      [
        "Ġwh",
        "ile"
      ],
      [
        "Ġl",
        "oc"
      ],
      [
        "Ġl",
        "ong"
      ],
      [
        "Ġsp",
        "e"
      ],
      [
        "st",
        "and"
      ],
      [
        "Ġg",
        "ra"
      ],
      [
        "ro",
        "s"
      ],
      [
        "Ġc",
        "ar"
      ],
      [
        "Ġse",
        "c"
      ],
      [
        "Ġ",
        "very"
      ],
      [
        "Ġimp",
        "ort"
      ],
      [
        "h",
        "ip"
      ],
      [
        "Ġth",
        "ose"
      ],
      [
        "Ġl",
        "ar"
      ],
      [
        "Ġs",
        "et"
      ],
      [
        "e",
        "f"
      ],
      [
        "Ġ",
        "ed"
      ],
      [
        "Ġdiffere",
        "nt"
      ],
      [
        "ch",
        "ool"
      ],
      [
        "Ġ20",
        "1"
      ],
      [
        "Ġm",
        "ake"
      ],
      [
        "Ġcomm",
        "un"
      ],
      [
        "Ġse",
        "e"
      ],
      [
        "u",
        "ally"
      ],
      [
        "Ġh",
        "um"
      ],
      [
        "Ġin",
        "s"
      ],
      [
        "l",
        "ed"
      ],
      [
        "Ġh",
        "im"
      ],
      [
        "Ġd",
        "ist"
      ],
      [
        "ic",
        "es"
      ],
      [
        "Ġ",
        ")"
      ],
      [
        "Ġd",
        "ay"
      ],
      [
        "Ġ",
        "ent"
      ],
      [
        "ĠW",
        "h"
      ],
      [
        "Ġ",
        "ke"
      ],
      [
        "Ġg",
        "et"
      ],
      [
        "Ġd",
        "et"
      ],
      [
        "ical",
        "ly"
      ],
      [
        "Ġar",
        "t"
      ],
      [
        "Ġpro",
        "g"
      ],
      [
        "im",
        "es"
      ],
      [
        "g",
        "y"
      ],
      [
        "Ġp",
        "ub"
      ],
      [
        "Ġh",
        "ist"
      ],
      [
        "t",
        "ed"
      ],
      [
        "at",
        "a"
      ],
      [
        "Ġt",
        "y"
      ],
      [
        "Ġst",
        "r"
      ],
      [
        "iz",
        "ed"
      ],
      [
        "Ġte",
        "chn"
      ],
      [
        "at",
        "her"
      ],
      [
        "Ġbec",
        "ause"
      ],
      [
        "ĠP",
        "ro"
      ],
      [
        "Ġc",
        "ount"
      ],
      [
        "ar",
        "m"
      ],
      [
        "Ġf",
        "am"
      ],
      [
        "Ġl",
        "it"
      ],
      [
        "Ġp",
        "at"
      ],
      [
        "v",
        "ing"
      ],
      [
        "ect",
        "ion"
      ],
      [
        "Ġf",
        "ollow"
      ],
      [
        "i",
        "qu"
      ],
      [
        "ru",
        "ct"
      ],
      [
        "Ġex",
        "t"
      ],
      [
        "d",
        "s"
      ],
      [
        "ag",
        "es"
      ],
      [
        "Ġb",
        "ack"
      ],
      [
        "Ġm",
        "ade"
      ],
      [
        "Ġinc",
        "re"
      ],
      [
        "Ġb",
        "oth"
      ],
      [
        "n",
        "ce"
      ],
      [
        "Ġbe",
        "ing"
      ],
      [
        "Ġas",
        "s"
      ],
      [
        "c",
        "k"
      ],
      [
        "ir",
        "on"
      ],
      [
        "i",
        "vers"
      ],
      [
        "Ġ",
        "6"
      ],
      [
        "Ġde",
        "f"
      ],
      [
        "Ġpart",
        "ic"
      ],
      [
        "Ġcomp",
        "le"
      ],
      [
        "Ġto",
        "o"
      ],
      [
        "Ġw",
        "ay"
      ],
      [
        "Ġeff",
        "ect"
      ],
      [
        "Ġag",
        "ain"
      ],
      [
        "Ġbe",
        "fore"
      ],
      [
        "Ġle",
        "ad"
      ],
      [
        "et",
        "y"
      ],
      [
        "g",
        "g"
      ],
      [
        "iz",
        "e"
      ],
      [
        "T",
        "h"
      ],
      [
        "Ġres",
        "ult"
      ],
      [
        "t",
        "y"
      ],
      [
        "Ġre",
        "qu"
      ],
      [
        "Ġm",
        "y"
      ],
      [
        "Ġpro",
        "cess"
      ],
      [
        "Ġm",
        "on"
      ],
      [
        "ĠF",
        "or"
      ],
      [
        "Ġg",
        "rou"
      ],
      [
        "ci",
        "ent"
      ],
      [
        "ver",
        "n"
      ],
      [
        "Ġv",
        "al"
      ],
      [
        "ĠN",
        "ew"
      ],
      [
        "Ġre",
        "f"
      ],
      [
        "Ġin",
        "formation"
      ],
      [
        "i",
        "x"
      ],
      [
        "ĠW",
        "e"
      ],
      [
        "ĠA",
        "r"
      ],
      [
        "Ġm",
        "uch"
      ],
      [
        "Ġf",
        "ind"
      ],
      [
        "Ġo",
        "wn"
      ],
      [
        "an",
        "y"
      ],
      [
        "ĠA",
        "n"
      ],
      [
        "Ġch",
        "ar"
      ],
      [
        "Ġa",
        "ut"
      ],
      [
        ".",
        "."
      ],
      [
        "Ġde",
        "p"
      ],
      [
        "iv",
        "id"
      ],
      [
        "t",
        "he"
      ],
      [
        "Ġl",
        "ife"
      ],
      [
        "*",
        "*"
      ],
      [
        "Ġf",
        "un"
      ],
      [
        "al",
        "e"
      ],
      [
        "Ġcall",
        "ed"
      ],
      [
        "c",
        "l"
      ],
      [
        "Ġa",
        "round"
      ],
      [
        "or",
        "k"
      ],
      [
        "c",
        "ent"
      ],
      [
        "Ġen",
        "d"
      ],
      [
        "Ġr",
        "ight"
      ],
      [
        "Ġpers",
        "on"
      ],
      [
        "Ġc",
        "ap"
      ],
      [
        "e",
        "x"
      ],
      [
        "Ġsm",
        "all"
      ],
      [
        "Ġs",
        "om"
      ],
      [
        "Ġg",
        "row"
      ],
      [
        "Ġf",
        "act"
      ],
      [
        "is",
        "hed"
      ],
      [
        "or",
        "n"
      ],
      [
        "Ġs",
        "k"
      ],
      [
        "Ġsh",
        "ow"
      ],
      [
        "c",
        "on"
      ],
      [
        "as",
        "es"
      ],
      [
        "i",
        "el"
      ],
      [
        "Ġs",
        "ame"
      ],
      [
        "----",
        "----"
      ],
      [
        "ar",
        "s"
      ],
      [
        "i",
        "o"
      ],
      [
        "in",
        "al"
      ],
      [
        "Ġs",
        "erv"
      ],
      [
        "v",
        "es"
      ],
      [
        "a",
        "ve"
      ],
      [
        "Ġus",
        "ing"
      ],
      [
        "ro",
        "p"
      ],
      [
        "Ġc",
        "ur"
      ],
      [
        "Ġm",
        "em"
      ],
      [
        "Ġwith",
        "in"
      ],
      [
        "em",
        "ent"
      ],
      [
        "Ġp",
        "op"
      ],
      [
        ",",
        "\""
      ],
      [
        "ut",
        "e"
      ],
      [
        "u",
        "nd"
      ],
      [
        "Ġre",
        "ad"
      ],
      [
        "Ġb",
        "r"
      ],
      [
        "Ġm",
        "in"
      ],
      [
        "od",
        "y"
      ],
      [
        "Ġd",
        "id"
      ],
      [
        "ĠH",
        "ow"
      ],
      [
        "i",
        "ent"
      ],
      [
        "Ġw",
        "rit"
      ],
      [
        "Ġdes",
        "ign"
      ],
      [
        "Ġm",
        "ain"
      ],
      [
        "in",
        "ce"
      ],
      [
        "d",
        "ition"
      ],
      [
        "in",
        "ed"
      ],
      [
        "v",
        "en"
      ],
      [
        "r",
        "al"
      ],
      [
        "Ġstud",
        "y"
      ],
      [
        "Ġth",
        "ree"
      ],
      [
        "00",
        "0"
      ],
      [
        "re",
        "ad"
      ],
      [
        "a",
        "x"
      ],
      [
        "ire",
        "ct"
      ],
      [
        "Ġd",
        "own"
      ],
      [
        "Ġle",
        "vel"
      ],
      [
        "are",
        "d"
      ],
      [
        "o",
        "h"
      ],
      [
        "Ġf",
        "ood"
      ],
      [
        "Ġst",
        "art"
      ],
      [
        "en",
        "g"
      ],
      [
        "Ġcont",
        "in"
      ],
      [
        "i",
        "er"
      ],
      [
        "Ġs",
        "er"
      ],
      [
        "Ġdo",
        "es"
      ],
      [
        "Ġprov",
        "id"
      ],
      [
        "v",
        "iron"
      ],
      [
        "and",
        "s"
      ],
      [
        "Ġa",
        "v"
      ],
      [
        "Ġp",
        "ower"
      ],
      [
        "Ġ",
        "est"
      ],
      [
        "Ġbe",
        "l"
      ],
      [
        "Ġunder",
        "stand"
      ],
      [
        "Ġg",
        "l"
      ],
      [
        "a",
        "h"
      ],
      [
        "ter",
        "s"
      ],
      [
        "sel",
        "f"
      ],
      [
        "Ġc",
        "are"
      ],
      [
        "Ġof",
        "ten"
      ],
      [
        "Ġ",
        "7"
      ],
      [
        "a",
        "ir"
      ],
      [
        "al",
        "ity"
      ],
      [
        "Ġc",
        "he"
      ],
      [
        "Ġv",
        "is"
      ],
      [
        "âĢ",
        "Ķ"
      ],
      [
        "ros",
        "s"
      ],
      [
        "Ġimport",
        "ant"
      ],
      [
        "ak",
        "es"
      ],
      [
        "w",
        "ay"
      ],
      [
        "Ġg",
        "ood"
      ],
      [
        "Ġn",
        "ow"
      ],
      [
        "Ġpro",
        "ble"
      ],
      [
        "Ġchild",
        "ren"
      ],
      [
        "Ġo",
        "cc"
      ],
      [
        "Ġs",
        "chool"
      ],
      [
        "1",
        "9"
      ],
      [
        "ent",
        "ial"
      ],
      [
        "oc",
        "k"
      ],
      [
        "e",
        "g"
      ],
      [
        "Ġd",
        "ata"
      ],
      [
        "Ġth",
        "ough"
      ],
      [
        "it",
        "ions"
      ],
      [
        "i",
        "en"
      ],
      [
        "im",
        "ate"
      ],
      [
        "ĠS",
        "p"
      ],
      [
        "Ġor",
        "gan"
      ],
      [
        "ion",
        "al"
      ],
      [
        "Ġm",
        "ight"
      ],
      [
        "Ġs",
        "ol"
      ],
      [
        "Ġcons",
        "id"
      ],
      [
        "ur",
        "y"
      ],
      [
        "Ġinclud",
        "ing"
      ],
      [
        "Ġnum",
        "ber"
      ],
      [
        "Ġpro",
        "t"
      ],
      [
        "Ġsupp",
        "ort"
      ],
      [
        "r",
        "on"
      ],
      [
        "ĠI",
        "nd"
      ],
      [
        "ĠS",
        "he"
      ],
      [
        "er",
        "ing"
      ],
      [
        "Ġt",
        "est"
      ],
      [
        "Ġo",
        "p"
      ],
      [
        "ect",
        "ed"
      ],
      [
        "Ġp",
        "oss"
      ],
      [
        "ĠB",
        "ut"
      ],
      [
        "ro",
        "l"
      ],
      [
        "us",
        "s"
      ],
      [
        "Ġad",
        "v"
      ],
      [
        "ou",
        "th"
      ],
      [
        "Ġ1",
        "0"
      ],
      [
        "Ġw",
        "ant"
      ],
      [
        "Ġt",
        "ake"
      ],
      [
        "Ġl",
        "ess"
      ],
      [
        "Ġall",
        "ow"
      ],
      [
        "Ġt",
        "reat"
      ],
      [
        "Ġ19",
        "9"
      ],
      [
        "ĠI",
        "f"
      ],
      [
        "Ġc",
        "or"
      ],
      [
        "Ġm",
        "at"
      ],
      [
        "Ġg",
        "u"
      ],
      [
        "d",
        "ay"
      ],
      [
        "ivers",
        "ity"
      ],
      [
        "ĠS",
        "o"
      ],
      [
        "er",
        "gy"
      ],
      [
        "|",
        "|"
      ],
      [
        "Ġ",
        "8"
      ],
      [
        "it",
        "al"
      ],
      [
        "Ġbu",
        "ild"
      ],
      [
        "om",
        "en"
      ],
      [
        "u",
        "p"
      ],
      [
        "Ġcl",
        "ass"
      ],
      [
        "Ġr",
        "is"
      ],
      [
        "viron",
        "ment"
      ],
      [
        "ivid",
        "ual"
      ],
      [
        "Ġhum",
        "an"
      ],
      [
        "c",
        "ing"
      ],
      [
        "Ġe",
        "qu"
      ],
      [
        "ĠThe",
        "se"
      ],
      [
        "Ġexam",
        "ple"
      ],
      [
        "Ġp",
        "ract"
      ],
      [
        "Ġc",
        "a"
      ],
      [
        "Ġpl",
        "an"
      ],
      [
        "re",
        "nt"
      ],
      [
        "ĠS",
        "e"
      ],
      [
        "Ġstud",
        "ents"
      ],
      [
        "Ġkn",
        "own"
      ],
      [
        "in",
        "ing"
      ],
      [
        "Ġcon",
        "f"
      ],
      [
        "or",
        "ies"
      ],
      [
        "Ġc",
        "ult"
      ],
      [
        "el",
        "s"
      ],
      [
        "ul",
        "l"
      ],
      [
        "ĠC",
        "on"
      ],
      [
        "Ġre",
        "t"
      ],
      [
        "Ġm",
        "ust"
      ],
      [
        "ire",
        "d"
      ],
      [
        "Ġ",
        "9"
      ],
      [
        ".",
        ","
      ],
      [
        "ĠAmeric",
        "an"
      ],
      [
        "or",
        "th"
      ],
      [
        "ou",
        "se"
      ],
      [
        "et",
        "s"
      ],
      [
        "ul",
        "ation"
      ],
      [
        "Ġen",
        "g"
      ],
      [
        "Ġlar",
        "ge"
      ],
      [
        "r",
        "an"
      ],
      [
        "er",
        "n"
      ],
      [
        "Ġcon",
        "st"
      ],
      [
        "a",
        "j"
      ],
      [
        "Ġgo",
        "vern"
      ],
      [
        "act",
        "er"
      ],
      [
        "ĠA",
        "nd"
      ],
      [
        "ri",
        "end"
      ],
      [
        "Ġind",
        "ividual"
      ],
      [
        "as",
        "h"
      ],
      [
        "our",
        "ces"
      ],
      [
        "iv",
        "ing"
      ],
      [
        "t",
        "on"
      ],
      [
        "ou",
        "n"
      ],
      [
        "ain",
        "s"
      ],
      [
        "as",
        "on"
      ],
      [
        "Ġe",
        "lect"
      ],
      [
        "her",
        "s"
      ],
      [
        "Ġrese",
        "arch"
      ],
      [
        "ĠA",
        "d"
      ],
      [
        "ĠI",
        "s"
      ],
      [
        "is",
        "ion"
      ],
      [
        "p",
        "or"
      ],
      [
        "Ġb",
        "o"
      ],
      [
        "c",
        "om"
      ],
      [
        "b",
        "ers"
      ],
      [
        "ra",
        "ph"
      ],
      [
        "iz",
        "ation"
      ],
      [
        "Ġc",
        "le"
      ],
      [
        "d",
        "er"
      ],
      [
        "ĠD",
        "e"
      ],
      [
        "Ġbe",
        "h"
      ],
      [
        "Ġle",
        "t"
      ],
      [
        "Ġapp",
        "ro"
      ],
      [
        "Ġrep",
        "ort"
      ],
      [
        "Ġha",
        "pp"
      ],
      [
        "Ġc",
        "ell"
      ],
      [
        "Ġg",
        "reat"
      ],
      [
        "Ġpub",
        "lic"
      ],
      [
        "Ġlear",
        "n"
      ],
      [
        "Ġact",
        "iv"
      ],
      [
        "om",
        "s"
      ],
      [
        "ĠY",
        "ou"
      ],
      [
        "Ġdis",
        "e"
      ],
      [
        "Ġm",
        "et"
      ],
      [
        "p",
        "ect"
      ],
      [
        "Ġcomm",
        "on"
      ],
      [
        "os",
        "ed"
      ],
      [
        "Ġre",
        "du"
      ],
      [
        "Ġse",
        "ver"
      ],
      [
        "p",
        "r"
      ],
      [
        "u",
        "g"
      ],
      [
        "a",
        "z"
      ],
      [
        "Ġan",
        "other"
      ],
      [
        "ang",
        "u"
      ],
      [
        "Ġg",
        "re"
      ],
      [
        "Ġpro",
        "m"
      ],
      [
        "in",
        "ation"
      ],
      [
        "Ġd",
        "irect"
      ],
      [
        "ĠB",
        "y"
      ],
      [
        "Ġc",
        "our"
      ],
      [
        "Ġd",
        "el"
      ],
      [
        "g",
        "er"
      ],
      [
        "Ġd",
        "em"
      ],
      [
        "Ġm",
        "us"
      ],
      [
        "cc",
        "ess"
      ],
      [
        "so",
        "ci"
      ],
      [
        "Ġqu",
        "est"
      ],
      [
        "Ġa",
        "ff"
      ],
      [
        "ci",
        "ence"
      ],
      [
        "i",
        "od"
      ],
      [
        "Ġst",
        "ill"
      ],
      [
        "Ġst",
        "ate"
      ],
      [
        "ent",
        "ly"
      ],
      [
        "ro",
        "du"
      ],
      [
        "Ġl",
        "ight"
      ],
      [
        "Ġpl",
        "ace"
      ],
      [
        "l",
        "ine"
      ],
      [
        "Ġp",
        "ot"
      ],
      [
        "Ġ",
        "ident"
      ],
      [
        "en",
        "se"
      ],
      [
        "Ġp",
        "os"
      ],
      [
        "g",
        "en"
      ],
      [
        "Ġp",
        "ass"
      ],
      [
        "m",
        "an"
      ],
      [
        "l",
        "ess"
      ],
      [
        "con",
        "om"
      ],
      [
        "Ġe",
        "le"
      ],
      [
        "Ġis",
        "s"
      ],
      [
        "Ġs",
        "l"
      ],
      [
        "Ġb",
        "ody"
      ],
      [
        "Ġ",
        "ide"
      ],
      [
        "Ġsever",
        "al"
      ],
      [
        "ater",
        "ial"
      ],
      [
        "ĠE",
        "ng"
      ],
      [
        "Ġdes",
        "c"
      ],
      [
        "l",
        "ish"
      ],
      [
        "Ġre",
        "al"
      ],
      [
        "Ġpro",
        "f"
      ],
      [
        "Ġlit",
        "tle"
      ],
      [
        "t",
        "il"
      ],
      [
        "Ġinv",
        "ol"
      ],
      [
        "W",
        "h"
      ],
      [
        "ĠA",
        "t"
      ],
      [
        "ord",
        "ing"
      ],
      [
        "iv",
        "ed"
      ],
      [
        "Ġty",
        "p"
      ],
      [
        "Ġne",
        "ar"
      ],
      [
        "Ġare",
        "a"
      ],
      [
        "Ġagain",
        "st"
      ],
      [
        "Ġed",
        "uc"
      ],
      [
        "r",
        "ist"
      ],
      [
        "t",
        "o"
      ],
      [
        "ere",
        "st"
      ],
      [
        "Ġsec",
        "ond"
      ],
      [
        "r",
        "ies"
      ],
      [
        "k",
        "ed"
      ],
      [
        "Ġa",
        "ir"
      ],
      [
        "iel",
        "d"
      ],
      [
        "ĠUn",
        "ited"
      ],
      [
        "er",
        "al"
      ],
      [
        "Ġl",
        "ook"
      ],
      [
        "i",
        "ans"
      ],
      [
        "Ġbel",
        "ie"
      ],
      [
        "d",
        "e"
      ],
      [
        "iv",
        "en"
      ],
      [
        "Ġch",
        "ang"
      ],
      [
        "am",
        "p"
      ],
      [
        "Ġf",
        "riend"
      ],
      [
        "Ġo",
        "per"
      ],
      [
        "Ġc",
        "reat"
      ],
      [
        "Ġwith",
        "out"
      ],
      [
        "v",
        "iew"
      ],
      [
        "n",
        "er"
      ],
      [
        "Ġdevelop",
        "ment"
      ],
      [
        "i",
        "or"
      ],
      [
        "Ġsign",
        "ific"
      ],
      [
        "olog",
        "ical"
      ],
      [
        "ra",
        "in"
      ],
      [
        "re",
        "t"
      ],
      [
        "Ġear",
        "ly"
      ],
      [
        "Ġpres",
        "ent"
      ],
      [
        "Ġca",
        "us"
      ],
      [
        "Ġf",
        "in"
      ],
      [
        "Ġop",
        "en"
      ],
      [
        "Ġhist",
        "ory"
      ],
      [
        "Ġp",
        "ar"
      ],
      [
        "e",
        "ad"
      ],
      [
        "ab",
        "ility"
      ],
      [
        "ĠE",
        "x"
      ],
      [
        "i",
        "ver"
      ],
      [
        "Ġf",
        "ew"
      ],
      [
        "Ġh",
        "ome"
      ],
      [
        "Ġt",
        "em"
      ],
      [
        "Ġgrou",
        "p"
      ],
      [
        "r",
        "ation"
      ],
      [
        "i",
        "um"
      ],
      [
        "em",
        "ber"
      ],
      [
        "Ġm",
        "ill"
      ],
      [
        "il",
        "ar"
      ],
      [
        "Ġb",
        "re"
      ],
      [
        "Ġm",
        "il"
      ],
      [
        "Ġinclud",
        "e"
      ],
      [
        "Ġen",
        "vironment"
      ],
      [
        "ĠP",
        "h"
      ],
      [
        "at",
        "ural"
      ],
      [
        "Ġo",
        "pp"
      ],
      [
        "am",
        "es"
      ],
      [
        "ĠUn",
        "iversity"
      ],
      [
        ".",
        "âĢĿ"
      ],
      [
        "Ġst",
        "and"
      ],
      [
        "Ġper",
        "form"
      ],
      [
        "ĠThe",
        "re"
      ],
      [
        "i",
        "ence"
      ],
      [
        "ag",
        "n"
      ],
      [
        "Ġc",
        "er"
      ],
      [
        "if",
        "y"
      ],
      [
        "Ġph",
        "ys"
      ],
      [
        "p",
        "ar"
      ],
      [
        "it",
        "ive"
      ],
      [
        "Ġm",
        "ar"
      ],
      [
        "Ġo",
        "ld"
      ],
      [
        "b",
        "e"
      ],
      [
        "Ġan",
        "im"
      ],
      [
        "Th",
        "is"
      ],
      [
        "Ġp",
        "ur"
      ],
      [
        "Ġto",
        "get"
      ],
      [
        "Ġtoget",
        "her"
      ],
      [
        "Ġor",
        "ig"
      ],
      [
        "at",
        "s"
      ],
      [
        "l",
        "ished"
      ],
      [
        "Ġs",
        "it"
      ],
      [
        "eth",
        "ing"
      ],
      [
        "Ġam",
        "ong"
      ],
      [
        "Ġf",
        "ac"
      ],
      [
        "if",
        "ied"
      ],
      [
        "Ġh",
        "and"
      ],
      [
        "Ġe",
        "l"
      ],
      [
        "Ġs",
        "ays"
      ],
      [
        "ol",
        "ution"
      ],
      [
        "id",
        "s"
      ],
      [
        "Ġim",
        "m"
      ],
      [
        "og",
        "raph"
      ],
      [
        "Ġ",
        "ve"
      ],
      [
        "pl",
        "es"
      ],
      [
        "g",
        "in"
      ],
      [
        "Ġe",
        "as"
      ],
      [
        "Ġsy",
        "m"
      ],
      [
        "in",
        "ess"
      ],
      [
        "Ġspec",
        "ies"
      ],
      [
        "Ġw",
        "ar"
      ],
      [
        "Ġbet",
        "ter"
      ],
      [
        "Ġm",
        "aterial"
      ],
      [
        "ĠR",
        "es"
      ],
      [
        "Ġen",
        "ergy"
      ],
      [
        "eth",
        "od"
      ],
      [
        "Ġfam",
        "ily"
      ],
      [
        "pt",
        "ion"
      ],
      [
        "Ġbl",
        "ood"
      ],
      [
        "u",
        "ro"
      ],
      [
        "Ġaut",
        "h"
      ],
      [
        "ent",
        "al"
      ],
      [
        "Ġ",
        "es"
      ],
      [
        "Ġf",
        "ore"
      ],
      [
        "Ġl",
        "and"
      ],
      [
        "Ġch",
        "ange"
      ],
      [
        "Ġm",
        "ove"
      ],
      [
        "Ġle",
        "g"
      ],
      [
        "ĠHow",
        "ever"
      ],
      [
        "Ġre",
        "st"
      ],
      [
        "Ġint",
        "erest"
      ],
      [
        "b",
        "s"
      ],
      [
        "he",
        "re"
      ],
      [
        "ĠS",
        "h"
      ],
      [
        "Ġimp",
        "ro"
      ],
      [
        "Ġbec",
        "ome"
      ],
      [
        "ĠP",
        "l"
      ],
      [
        "l",
        "ing"
      ],
      [
        "Ġpro",
        "ject"
      ],
      [
        "l",
        "u"
      ],
      [
        "Ġ",
        "["
      ],
      [
        "Ġcon",
        "n"
      ],
      [
        "are",
        "nt"
      ],
      [
        "Ġprog",
        "ram"
      ],
      [
        "Ġrep",
        "res"
      ],
      [
        "Ġ",
        "0"
      ],
      [
        "Ġsom",
        "ething"
      ],
      [
        "aj",
        "or"
      ],
      [
        "iss",
        "ion"
      ],
      [
        "2",
        "0"
      ],
      [
        "Ġf",
        "our"
      ],
      [
        "ard",
        "s"
      ],
      [
        "Ġl",
        "angu"
      ],
      [
        "ur",
        "ther"
      ],
      [
        "m",
        "e"
      ],
      [
        "ĠW",
        "hen"
      ],
      [
        "o",
        "ver"
      ],
      [
        "ĠC",
        "ol"
      ],
      [
        "an",
        "ces"
      ],
      [
        "Ġb",
        "ro"
      ],
      [
        "Ġd",
        "on"
      ],
      [
        "ĠC",
        "omm"
      ],
      [
        "Ġl",
        "ast"
      ],
      [
        "w",
        "ays"
      ],
      [
        "th",
        "ough"
      ],
      [
        "Ġt",
        "re"
      ],
      [
        "Ġb",
        "ased"
      ],
      [
        "Ġal",
        "ong"
      ],
      [
        "Ġe",
        "conom"
      ],
      [
        "Ġth",
        "ings"
      ],
      [
        "Ġvar",
        "ious"
      ],
      [
        "Ġr",
        "un"
      ],
      [
        "Ġc",
        "rit"
      ],
      [
        "Ġb",
        "ir"
      ],
      [
        "ĠâĢ",
        "Ķ"
      ],
      [
        "Ġl",
        "ater"
      ],
      [
        "Ġvar",
        "i"
      ],
      [
        "Ġ1",
        "5"
      ],
      [
        "ĠC",
        "om"
      ],
      [
        "Ġcont",
        "rol"
      ],
      [
        "Ġother",
        "s"
      ],
      [
        "Ġun",
        "til"
      ],
      [
        "is",
        "ed"
      ],
      [
        "Ġl",
        "aw"
      ],
      [
        "Ġre",
        "le"
      ],
      [
        "Ġme",
        "as"
      ],
      [
        "Ġfe",
        "el"
      ],
      [
        "Ġ",
        "&"
      ],
      [
        "Ġt",
        "er"
      ],
      [
        "Ġhe",
        "ad"
      ],
      [
        "Ġup",
        "on"
      ],
      [
        "or",
        "ing"
      ],
      [
        "Ġb",
        "as"
      ],
      [
        "Ġs",
        "cient"
      ],
      [
        "ĠSt",
        "ates"
      ],
      [
        "Ġb",
        "est"
      ],
      [
        "Ġocc",
        "ur"
      ],
      [
        "Ġm",
        "ark"
      ],
      [
        "ĠE",
        "n"
      ],
      [
        "ĠO",
        "n"
      ],
      [
        "Ġn",
        "ame"
      ],
      [
        "Ġl",
        "ist"
      ],
      [
        "Ġan",
        "al"
      ],
      [
        "ab",
        "or"
      ],
      [
        "Ġsu",
        "ccess"
      ],
      [
        "Ġan",
        "t"
      ],
      [
        "iqu",
        "e"
      ],
      [
        "at",
        "ic"
      ],
      [
        "ort",
        "s"
      ],
      [
        "ot",
        "e"
      ],
      [
        "Ġper",
        "cent"
      ],
      [
        "od",
        "e"
      ],
      [
        "Ġfollow",
        "ing"
      ],
      [
        "Ġs",
        "ince"
      ],
      [
        "Ġp",
        "ain"
      ],
      [
        "ĠC",
        "l"
      ],
      [
        "Ġpartic",
        "ular"
      ],
      [
        "Ġgovern",
        "ment"
      ],
      [
        "og",
        "n"
      ],
      [
        "Ġprodu",
        "ct"
      ],
      [
        "Ġob",
        "ject"
      ],
      [
        "ail",
        "able"
      ],
      [
        "m",
        "y"
      ],
      [
        "Ġdise",
        "ase"
      ],
      [
        "Ġper",
        "iod"
      ],
      [
        "Ġhe",
        "re"
      ],
      [
        "ent",
        "ion"
      ],
      [
        "Ġme",
        "an"
      ],
      [
        "1",
        "0"
      ],
      [
        "Ġloc",
        "al"
      ],
      [
        "Ġman",
        "ag"
      ],
      [
        "Ġsa",
        "f"
      ],
      [
        "Ġb",
        "en"
      ],
      [
        "Ġm",
        "ethod"
      ],
      [
        "Ġso",
        "cial"
      ],
      [
        "Ġre",
        "ce"
      ],
      [
        "Ġrec",
        "ord"
      ],
      [
        "our",
        "ce"
      ],
      [
        "ar",
        "c"
      ],
      [
        "Ġl",
        "im"
      ],
      [
        "ot",
        "s"
      ],
      [
        "Ġsignific",
        "ant"
      ],
      [
        "ĠT",
        "o"
      ],
      [
        "Ġp",
        "ress"
      ],
      [
        "Ġl",
        "ow"
      ],
      [
        "Ġke",
        "ep"
      ],
      [
        "os",
        "p"
      ],
      [
        "Ġspe",
        "cial"
      ],
      [
        "ĠCh",
        "rist"
      ],
      [
        "Ġpo",
        "int"
      ],
      [
        "Ġto",
        "p"
      ],
      [
        "id",
        "es"
      ],
      [
        "Ġf",
        "il"
      ],
      [
        "Ġch",
        "all"
      ],
      [
        "ĠC",
        "an"
      ],
      [
        "Ġs",
        "ay"
      ],
      [
        "Ġare",
        "as"
      ],
      [
        "id",
        "ence"
      ],
      [
        "Ġcon",
        "d"
      ],
      [
        "Ġb",
        "us"
      ],
      [
        "ain",
        "ed"
      ],
      [
        "ill",
        "s"
      ],
      [
        "Ġpro",
        "per"
      ],
      [
        "oh",
        "n"
      ],
      [
        "Ġris",
        "k"
      ],
      [
        "Ġpro",
        "p"
      ],
      [
        "Ġh",
        "y"
      ],
      [
        "Ġm",
        "ajor"
      ],
      [
        "w",
        "are"
      ],
      [
        "ĠW",
        "or"
      ],
      [
        "Ġ1",
        "7"
      ],
      [
        "Ġen",
        "c"
      ],
      [
        "Ġp",
        "ri"
      ],
      [
        "Ġw",
        "omen"
      ],
      [
        "Ġt",
        "ri"
      ],
      [
        "Ġ1",
        "2"
      ],
      [
        "oc",
        "us"
      ],
      [
        "Ġprov",
        "ide"
      ],
      [
        "an",
        "k"
      ],
      [
        "Ġcre",
        "ate"
      ],
      [
        "u",
        "ed"
      ],
      [
        "Ġd",
        "ue"
      ],
      [
        "s",
        "y"
      ],
      [
        "Ġde",
        "v"
      ],
      [
        "Ġb",
        "ig"
      ],
      [
        "Ġ",
        "$"
      ],
      [
        "ĠB",
        "e"
      ],
      [
        "ir",
        "c"
      ],
      [
        "ĠO",
        "ne"
      ],
      [
        "Ġs",
        "ing"
      ],
      [
        "end",
        "ed"
      ],
      [
        "Ġm",
        "ov"
      ],
      [
        "a",
        "pp"
      ],
      [
        "i",
        "ents"
      ],
      [
        "ĠC",
        "ent"
      ],
      [
        "Ġth",
        "ink"
      ],
      [
        "Ġme",
        "ans"
      ],
      [
        "Ġd",
        "ra"
      ],
      [
        "o",
        "le"
      ],
      [
        "Ġt",
        "imes"
      ],
      [
        "Ġapp",
        "ear"
      ],
      [
        "ra",
        "y"
      ],
      [
        "in",
        "a"
      ],
      [
        "Ġst",
        "ruct"
      ],
      [
        "Ġm",
        "aking"
      ],
      [
        "Ġv",
        "iew"
      ],
      [
        "ĠA",
        "ll"
      ],
      [
        "ĠN",
        "ational"
      ],
      [
        "ore",
        "d"
      ],
      [
        "Ġchar",
        "acter"
      ],
      [
        "Ġcur",
        "rent"
      ],
      [
        "o",
        "f"
      ],
      [
        "Ġ",
        "Q"
      ],
      [
        "ap",
        "e"
      ],
      [
        "an",
        "e"
      ],
      [
        "g",
        "ed"
      ],
      [
        "Ġfun",
        "ction"
      ],
      [
        "ab",
        "ly"
      ],
      [
        "Ġav",
        "ailable"
      ],
      [
        "Ġf",
        "re"
      ],
      [
        "ward",
        "s"
      ],
      [
        "Ġadd",
        "ition"
      ],
      [
        "Ġ1",
        "6"
      ],
      [
        "Ġm",
        "en"
      ],
      [
        "her",
        "n"
      ],
      [
        "Ġ",
        "Z"
      ],
      [
        "s",
        "ide"
      ],
      [
        "Ġt",
        "urn"
      ],
      [
        "Ġh",
        "ig"
      ],
      [
        "Ġac",
        "ross"
      ],
      [
        "gg",
        "est"
      ],
      [
        "Ġcer",
        "tain"
      ],
      [
        "el",
        "f"
      ],
      [
        "ic",
        "ation"
      ],
      [
        "Ġcent",
        "ury"
      ],
      [
        "Ġbec",
        "ame"
      ],
      [
        "Ġhe",
        "art"
      ],
      [
        "Ġcom",
        "b"
      ],
      [
        "Ġn",
        "atural"
      ],
      [
        "ĠT",
        "e"
      ],
      [
        "Ġp",
        "ut"
      ],
      [
        "op",
        "e"
      ],
      [
        "oo",
        "ks"
      ],
      [
        "on",
        "es"
      ],
      [
        "Ġn",
        "on"
      ],
      [
        "Ġse",
        "em"
      ],
      [
        "Ġdif",
        "f"
      ],
      [
        "un",
        "e"
      ],
      [
        "Ġs",
        "w"
      ],
      [
        "Ġsystem",
        "s"
      ],
      [
        "ĠL",
        "e"
      ],
      [
        "Ġyou",
        "ng"
      ],
      [
        "Ġcom",
        "e"
      ],
      [
        "at",
        "or"
      ],
      [
        "Ġlear",
        "ning"
      ],
      [
        "Ġposs",
        "ible"
      ],
      [
        "b",
        "y"
      ],
      [
        "Ġsim",
        "ilar"
      ],
      [
        "Ġst",
        "at"
      ],
      [
        "rib",
        "ut"
      ],
      [
        "Ġv",
        "ol"
      ],
      [
        "Ġcomp",
        "ut"
      ],
      [
        "r",
        "ing"
      ],
      [
        "Ġacc",
        "ess"
      ],
      [
        "Ġc",
        "al"
      ],
      [
        "Ġex",
        "ist"
      ],
      [
        "ate",
        "g"
      ],
      [
        "Ġpol",
        "it"
      ],
      [
        "Ġb",
        "i"
      ],
      [
        "Ġso",
        "ci"
      ],
      [
        "uro",
        "pe"
      ],
      [
        "Ġin",
        "tern"
      ],
      [
        "o",
        "x"
      ],
      [
        "Ġm",
        "ult"
      ],
      [
        "Ġdisc",
        "uss"
      ],
      [
        "Ġsu",
        "ggest"
      ],
      [
        ",",
        "âĢĿ"
      ],
      [
        "al",
        "es"
      ],
      [
        "ut",
        "ure"
      ],
      [
        "Ġpre",
        "vent"
      ],
      [
        "Ġa",
        "way"
      ],
      [
        "r",
        "is"
      ],
      [
        "um",
        "ent"
      ],
      [
        "Ġob",
        "s"
      ],
      [
        "ĠO",
        "r"
      ],
      [
        "Ġf",
        "ar"
      ],
      [
        "w",
        "w"
      ],
      [
        "A",
        "s"
      ],
      [
        "Ġf",
        "ocus"
      ],
      [
        "u",
        "se"
      ],
      [
        "ive",
        "ly"
      ],
      [
        "Ġne",
        "xt"
      ],
      [
        "Ġstr",
        "ong"
      ],
      [
        "Ġl",
        "ine"
      ],
      [
        "ĠG",
        "od"
      ],
      [
        "Ġg",
        "iven"
      ],
      [
        "Ġwe",
        "e"
      ],
      [
        "ort",
        "un"
      ],
      [
        "Ġ",
        "ess"
      ],
      [
        "S",
        "t"
      ],
      [
        "Ġrepres",
        "ent"
      ],
      [
        "Ġen",
        "s"
      ],
      [
        "o",
        "id"
      ],
      [
        "id",
        "d"
      ],
      [
        "Ġas",
        "soci"
      ],
      [
        "Ġte",
        "am"
      ],
      [
        "ra",
        "p"
      ],
      [
        "f",
        "ace"
      ],
      [
        "Ġb",
        "ook"
      ],
      [
        "i",
        "k"
      ],
      [
        "ol",
        "s"
      ],
      [
        "it",
        "ing"
      ],
      [
        "Ġ19",
        "8"
      ],
      [
        "Ġc",
        "ost"
      ],
      [
        "I",
        "t"
      ],
      [
        "Ġdesc",
        "rib"
      ],
      [
        "ĠJ",
        "ohn"
      ],
      [
        "ress",
        "ion"
      ],
      [
        "as",
        "ter"
      ],
      [
        "op",
        "h"
      ],
      [
        "1",
        "2"
      ],
      [
        "Ġadd",
        "ress"
      ],
      [
        "Ġh",
        "ard"
      ],
      [
        "ap",
        "s"
      ],
      [
        "Ġro",
        "le"
      ],
      [
        "ĠM",
        "ay"
      ],
      [
        "Ġest",
        "ab"
      ],
      [
        "th",
        "s"
      ],
      [
        "at",
        "ch"
      ],
      [
        "il",
        "ities"
      ],
      [
        "ĠE",
        "urope"
      ],
      [
        "it",
        "her"
      ],
      [
        "ar",
        "ing"
      ],
      [
        "ate",
        "ly"
      ],
      [
        "pl",
        "oy"
      ],
      [
        "Ġ",
        "ill"
      ],
      [
        "ĠW",
        "ar"
      ],
      [
        "Ġsh",
        "ort"
      ],
      [
        "Ġc",
        "ause"
      ],
      [
        "ĠB",
        "rit"
      ],
      [
        "end",
        "ing"
      ],
      [
        "ĠM",
        "ed"
      ],
      [
        "ĠU",
        "S"
      ],
      [
        "er",
        "t"
      ],
      [
        "Ġcount",
        "ry"
      ],
      [
        "ci",
        "ally"
      ],
      [
        "ak",
        "en"
      ],
      [
        "ac",
        "es"
      ],
      [
        "Ġ",
        ":"
      ],
      [
        "ĠTh",
        "at"
      ],
      [
        "et",
        "imes"
      ],
      [
        "Ġra",
        "d"
      ],
      [
        "Ġlangu",
        "age"
      ],
      [
        "Ġconsid",
        "er"
      ],
      [
        "as",
        "ing"
      ],
      [
        "m",
        "ber"
      ],
      [
        "ĠA",
        "f"
      ],
      [
        "Ġspec",
        "ific"
      ],
      [
        "Ġw",
        "ind"
      ],
      [
        "Ġg",
        "r"
      ],
      [
        "Ġtreat",
        "ment"
      ],
      [
        "ĠE",
        "ar"
      ],
      [
        "am",
        "ed"
      ],
      [
        "ur",
        "ch"
      ],
      [
        "Ġproble",
        "ms"
      ],
      [
        "Ġdet",
        "erm"
      ],
      [
        "ure",
        "d"
      ],
      [
        "Ġa",
        "ge"
      ],
      [
        "en",
        "n"
      ],
      [
        "Ġcon",
        "cer"
      ],
      [
        "Ġc",
        "ase"
      ],
      [
        "us",
        "ion"
      ],
      [
        "Ġcomple",
        "x"
      ],
      [
        "an",
        "n"
      ],
      [
        "âĢ",
        "ľ"
      ],
      [
        "ol",
        "l"
      ],
      [
        "b",
        "r"
      ],
      [
        "Ġhist",
        "or"
      ],
      [
        "v",
        "ious"
      ],
      [
        "Ġimp",
        "act"
      ],
      [
        "m",
        "in"
      ],
      [
        "p",
        "ut"
      ],
      [
        "Ġor",
        "der"
      ],
      [
        "ight",
        "s"
      ],
      [
        "Ġcommun",
        "ity"
      ],
      [
        "Ġlevel",
        "s"
      ],
      [
        "Ġab",
        "le"
      ],
      [
        "Ġd",
        "ri"
      ],
      [
        "v",
        "al"
      ],
      [
        "Ġ",
        "er"
      ],
      [
        "Ġind",
        "ust"
      ],
      [
        "al",
        "k"
      ],
      [
        "Ġinf",
        "lu"
      ],
      [
        "Ġp",
        "ast"
      ],
      [
        "Ġmill",
        "ion"
      ],
      [
        "c",
        "hes"
      ],
      [
        "st",
        "it"
      ],
      [
        "Ġapp",
        "lic"
      ],
      [
        "at",
        "ors"
      ],
      [
        "Ġal",
        "ways"
      ],
      [
        "Ġresp",
        "ons"
      ],
      [
        "ou",
        "ra"
      ],
      [
        "le",
        "ction"
      ],
      [
        "Ġsp",
        "ace"
      ],
      [
        "Ġe",
        "t"
      ],
      [
        "Ġt",
        "ry"
      ],
      [
        "Ġf",
        "ree"
      ],
      [
        "g",
        "es"
      ],
      [
        "Ġk",
        "ind"
      ],
      [
        "p",
        "ort"
      ],
      [
        "Ġf",
        "uture"
      ],
      [
        "Ġf",
        "low"
      ],
      [
        "Ġle",
        "ft"
      ],
      [
        "a",
        "ut"
      ],
      [
        "Ġauth",
        "or"
      ],
      [
        "Ġc",
        "ity"
      ],
      [
        "led",
        "ge"
      ],
      [
        "1",
        "8"
      ],
      [
        "ic",
        "ult"
      ],
      [
        "at",
        "ory"
      ],
      [
        "ĠI",
        "m"
      ],
      [
        "ap",
        "er"
      ],
      [
        "en",
        "ces"
      ],
      [
        "ĠWor",
        "ld"
      ],
      [
        "Ġinv",
        "est"
      ],
      [
        "ac",
        "y"
      ],
      [
        "iz",
        "ing"
      ],
      [
        "Ġcell",
        "s"
      ],
      [
        "Ġt",
        "ru"
      ],
      [
        "Ġto",
        "day"
      ],
      [
        "Ġne",
        "cess"
      ],
      [
        "Ġne",
        "ver"
      ],
      [
        "Ġwh",
        "y"
      ],
      [
        "Ġben",
        "ef"
      ],
      [
        "Ġunderstand",
        "ing"
      ],
      [
        "Ġp",
        "ost"
      ],
      [
        "et",
        "ic"
      ],
      [
        "is",
        "c"
      ],
      [
        "Ġf",
        "urther"
      ],
      [
        "ĠĠ",
        "ĠĠ"
      ],
      [
        "o",
        "ot"
      ],
      [
        "Ġrel",
        "ations"
      ],
      [
        "Ġha",
        "ving"
      ],
      [
        "ib",
        "r"
      ],
      [
        "Ġc",
        "irc"
      ],
      [
        "ĠWh",
        "at"
      ],
      [
        "er",
        "y"
      ],
      [
        "o",
        "int"
      ],
      [
        "ap",
        "ter"
      ],
      [
        "Ġty",
        "pe"
      ],
      [
        "Ġprof",
        "ess"
      ],
      [
        "Ġke",
        "y"
      ],
      [
        "Ġproble",
        "m"
      ],
      [
        "ĠS",
        "c"
      ],
      [
        "at",
        "t"
      ],
      [
        "ic",
        "le"
      ],
      [
        "at",
        "ures"
      ],
      [
        "i",
        "ally"
      ],
      [
        "w",
        "ork"
      ],
      [
        "ist",
        "ic"
      ],
      [
        "al",
        "f"
      ],
      [
        "o",
        "ber"
      ],
      [
        "Ġst",
        "ory"
      ],
      [
        "he",
        "m"
      ],
      [
        "Ġ",
        ";"
      ],
      [
        "om",
        "an"
      ],
      [
        "Ġd",
        "am"
      ],
      [
        "Ġs",
        "ide"
      ],
      [
        "Ġwor",
        "ks"
      ],
      [
        "Ġcond",
        "itions"
      ],
      [
        "a",
        "f"
      ],
      [
        "sel",
        "ves"
      ],
      [
        "le",
        "y"
      ],
      [
        "ĠG",
        "en"
      ],
      [
        "Ġde",
        "ath"
      ],
      [
        "Ġbe",
        "gan"
      ],
      [
        "Ġe",
        "ver"
      ],
      [
        "Ġbeh",
        "av"
      ],
      [
        "5",
        "0"
      ],
      [
        "ob",
        "al"
      ],
      [
        "Ġret",
        "urn"
      ],
      [
        "Ġbe",
        "gin"
      ],
      [
        "m",
        "it"
      ],
      [
        "Ġg",
        "round"
      ],
      [
        "Ġtra",
        "dition"
      ],
      [
        "fere",
        "nce"
      ],
      [
        "Ġhow",
        "ever"
      ],
      [
        "th",
        "ing"
      ],
      [
        "Ġpl",
        "ant"
      ],
      [
        "ĠW",
        "ith"
      ],
      [
        "Ġl",
        "a"
      ],
      [
        "Ġo",
        "pt"
      ],
      [
        "in",
        "ci"
      ],
      [
        "Ġc",
        "ame"
      ],
      [
        "ct",
        "or"
      ],
      [
        "Ġcour",
        "se"
      ],
      [
        "Ġs",
        "ound"
      ],
      [
        "ĠG",
        "erm"
      ],
      [
        "ne",
        "y"
      ],
      [
        "o",
        "ad"
      ],
      [
        "ĠM",
        "an"
      ],
      [
        "Ġpot",
        "ential"
      ],
      [
        "Ġrel",
        "ig"
      ],
      [
        "a",
        "im"
      ],
      [
        "i",
        "pp"
      ],
      [
        "Ġus",
        "ually"
      ],
      [
        "ĠM",
        "ar"
      ],
      [
        "il",
        "t"
      ],
      [
        "Ġres",
        "ources"
      ],
      [
        "Ġm",
        "om"
      ],
      [
        "Ġd",
        "ays"
      ],
      [
        "Ġcle",
        "ar"
      ],
      [
        "Ġrese",
        "arc"
      ],
      [
        "Ġthough",
        "t"
      ],
      [
        "y",
        "n"
      ],
      [
        "f",
        "or"
      ],
      [
        "Ġ19",
        "7"
      ],
      [
        "Ġin",
        "it"
      ],
      [
        "ru",
        "ction"
      ],
      [
        "er",
        "c"
      ],
      [
        "Ġcol",
        "lect"
      ],
      [
        "Ġpr",
        "im"
      ],
      [
        "ĠS",
        "ome"
      ],
      [
        "iv",
        "ity"
      ],
      [
        "re",
        "am"
      ],
      [
        "ĠB",
        "l"
      ],
      [
        "Ġexper",
        "ien"
      ],
      [
        "Ġeduc",
        "ation"
      ],
      [
        "us",
        "h"
      ],
      [
        "our",
        "s"
      ],
      [
        "o",
        "on"
      ],
      [
        "le",
        "ment"
      ],
      [
        "W",
        "e"
      ],
      [
        "n",
        "ot"
      ],
      [
        "Ġpol",
        "ic"
      ],
      [
        "Ġresult",
        "s"
      ],
      [
        "Ġe",
        "y"
      ],
      [
        "ill",
        "ed"
      ],
      [
        "re",
        "en"
      ],
      [
        "t",
        "t"
      ],
      [
        "av",
        "es"
      ],
      [
        "Ġf",
        "und"
      ],
      [
        "ĠC",
        "ar"
      ],
      [
        "y",
        "m"
      ],
      [
        "Ġfriend",
        "s"
      ],
      [
        "Ġbus",
        "iness"
      ],
      [
        "Ġv",
        "ir"
      ],
      [
        "m",
        "ost"
      ],
      [
        "Ġgo",
        "ing"
      ],
      [
        "Ġchall",
        "eng"
      ],
      [
        "Ġcl",
        "ose"
      ],
      [
        "Ġmod",
        "ern"
      ],
      [
        "Ġcon",
        "cept"
      ],
      [
        "Ġwor",
        "ds"
      ],
      [
        "w",
        "h"
      ],
      [
        "Ġwhe",
        "ther"
      ],
      [
        "Ġpre",
        "d"
      ],
      [
        "pe",
        "cially"
      ],
      [
        "Ġtoo",
        "k"
      ],
      [
        "om",
        "es"
      ],
      [
        "Ġoff",
        "ic"
      ],
      [
        "ir",
        "d"
      ],
      [
        "'",
        "re"
      ],
      [
        "Ã",
        "©"
      ],
      [
        "Ġrec",
        "ogn"
      ],
      [
        "Ġab",
        "ove"
      ],
      [
        "Ġam",
        "ount"
      ],
      [
        "e",
        "e"
      ],
      [
        "ib",
        "ility"
      ],
      [
        "Ġf",
        "ull"
      ],
      [
        "ove",
        "red"
      ],
      [
        "l",
        "er"
      ],
      [
        "Ġd",
        "r"
      ],
      [
        "Ġchang",
        "es"
      ],
      [
        "ĠAf",
        "ric"
      ],
      [
        "--------",
        "--------"
      ],
      [
        "au",
        "gh"
      ],
      [
        "en",
        "cy"
      ],
      [
        "Ġsing",
        "le"
      ],
      [
        "Ġev",
        "ent"
      ],
      [
        "Ġpop",
        "ulation"
      ],
      [
        "Ġdiff",
        "icult"
      ],
      [
        "c",
        "le"
      ],
      [
        "Ġthrough",
        "out"
      ],
      [
        "Ġm",
        "ot"
      ],
      [
        "âĢ",
        "ĵ"
      ],
      [
        "Ġw",
        "ays"
      ],
      [
        "Ġtem",
        "per"
      ],
      [
        "Ġtechn",
        "ology"
      ],
      [
        "Ġwor",
        "king"
      ],
      [
        "Ġst",
        "ep"
      ],
      [
        "Ġg",
        "ive"
      ],
      [
        "ĠA",
        "fter"
      ],
      [
        "Ġmem",
        "bers"
      ],
      [
        "Ġs",
        "cience"
      ],
      [
        "ff",
        "ic"
      ],
      [
        "Ġmain",
        "tain"
      ],
      [
        "Ġt",
        "erm"
      ],
      [
        "Ġen",
        "ough"
      ],
      [
        "ĠN",
        "orth"
      ],
      [
        "Ġcan",
        "cer"
      ],
      [
        "in",
        "ts"
      ],
      [
        "Ġan",
        "n"
      ],
      [
        "le",
        "t"
      ],
      [
        "iv",
        "il"
      ],
      [
        "Ġs",
        "um"
      ],
      [
        "Ġgrow",
        "th"
      ],
      [
        "ict",
        "ion"
      ],
      [
        "Ġh",
        "ouse"
      ],
      [
        "Ġcomple",
        "te"
      ],
      [
        "Ġmus",
        "ic"
      ],
      [
        "Ġgrou",
        "ps"
      ],
      [
        "Ġbuild",
        "ing"
      ],
      [
        "Ġexper",
        "ience"
      ],
      [
        "ĠG",
        "e"
      ],
      [
        "un",
        "g"
      ],
      [
        "Ġs",
        "elf"
      ],
      [
        "Ġ1",
        "1"
      ],
      [
        "i",
        "am"
      ],
      [
        "s",
        "w"
      ],
      [
        "Wh",
        "at"
      ],
      [
        "A",
        "n"
      ],
      [
        "Ġ",
        "Ð"
      ],
      [
        "Ġp",
        "arent"
      ],
      [
        "Ġme",
        "et"
      ],
      [
        "#",
        "#"
      ],
      [
        "ol",
        "ic"
      ],
      [
        "Ġiss",
        "ues"
      ],
      [
        "Ġstud",
        "ies"
      ],
      [
        "Ġprot",
        "ect"
      ],
      [
        "Ġ",
        "--"
      ],
      [
        "Ġcol",
        "l"
      ],
      [
        "ver",
        "se"
      ],
      [
        "as",
        "c"
      ],
      [
        "Ġex",
        "c"
      ],
      [
        "Ġ1",
        "4"
      ],
      [
        "Ġpartic",
        "ip"
      ],
      [
        "ific",
        "ation"
      ],
      [
        "Ġhig",
        "her"
      ],
      [
        "Ġcount",
        "ries"
      ],
      [
        "Ġf",
        "ive"
      ],
      [
        "Ġsa",
        "w"
      ],
      [
        "Ġn",
        "et"
      ],
      [
        "in",
        "king"
      ],
      [
        "ic",
        "ations"
      ],
      [
        "Ġc",
        "r"
      ],
      [
        "Ġcons",
        "um"
      ],
      [
        "i",
        "res"
      ],
      [
        "Ġg",
        "ame"
      ],
      [
        "Ġacc",
        "ount"
      ],
      [
        "a",
        "e"
      ],
      [
        "Ġ1",
        "3"
      ],
      [
        "Ġle",
        "ast"
      ],
      [
        "Ġre",
        "d"
      ],
      [
        "ĠA",
        "ust"
      ],
      [
        "g",
        "ing"
      ],
      [
        "en",
        "ed"
      ],
      [
        "ĠHe",
        "alth"
      ],
      [
        "Ġtyp",
        "es"
      ],
      [
        "land",
        "s"
      ],
      [
        "Ġse",
        "en"
      ],
      [
        "our",
        "n"
      ],
      [
        "Ġlike",
        "ly"
      ],
      [
        "Ġh",
        "old"
      ],
      [
        "ul",
        "es"
      ],
      [
        "Ġf",
        "ield"
      ],
      [
        "Ġ",
        "z"
      ],
      [
        "n",
        "ow"
      ],
      [
        "Ġsur",
        "face"
      ],
      [
        "ĠAmeric",
        "a"
      ],
      [
        "Ġindividual",
        "s"
      ],
      [
        "s",
        "p"
      ],
      [
        "Ġe",
        "mer"
      ],
      [
        "on",
        "st"
      ],
      [
        "Ġes",
        "pecially"
      ],
      [
        "ip",
        "s"
      ],
      [
        "i",
        "et"
      ],
      [
        "Ġb",
        "ar"
      ],
      [
        "m",
        "ed"
      ],
      [
        "ot",
        "t"
      ],
      [
        "Ġl",
        "iving"
      ],
      [
        "ch",
        "ie"
      ],
      [
        "ĠS",
        "outh"
      ],
      [
        "el",
        "t"
      ],
      [
        "pt",
        "oms"
      ],
      [
        "Ġar",
        "g"
      ],
      [
        "Ġp",
        "ort"
      ],
      [
        "ĠC",
        "al"
      ],
      [
        "oo",
        "king"
      ],
      [
        "Ġun",
        "ique"
      ],
      [
        "Ġ3",
        "0"
      ],
      [
        "y",
        "l"
      ],
      [
        "Ġre",
        "pl"
      ],
      [
        "Ġincre",
        "ase"
      ],
      [
        "Ġrequ",
        "ire"
      ],
      [
        "Ġm",
        "akes"
      ],
      [
        "Ġr",
        "ather"
      ],
      [
        "se",
        "qu"
      ],
      [
        "Ġknow",
        "ledge"
      ],
      [
        "Ġgener",
        "al"
      ],
      [
        "Ġr",
        "ange"
      ],
      [
        "ru",
        "g"
      ],
      [
        "Ġneed",
        "s"
      ],
      [
        "`",
        "`"
      ],
      [
        "I",
        "f"
      ],
      [
        "ab",
        "les"
      ],
      [
        "ĠE",
        "m"
      ],
      [
        "ub",
        "lic"
      ],
      [
        "2",
        "00"
      ],
      [
        "Ġn",
        "orm"
      ],
      [
        "ra",
        "ms"
      ],
      [
        "du",
        "ct"
      ],
      [
        "one",
        "y"
      ],
      [
        "Ġe",
        "p"
      ],
      [
        "Ġv",
        "i"
      ],
      [
        "ĠY",
        "ork"
      ],
      [
        "ly",
        "ing"
      ],
      [
        "Ġar",
        "ch"
      ],
      [
        "Ġprodu",
        "ction"
      ],
      [
        "id",
        "ed"
      ],
      [
        "ect",
        "ions"
      ],
      [
        "ap",
        "t"
      ],
      [
        "Ġn",
        "ational"
      ],
      [
        "Ġ",
        "X"
      ],
      [
        "ĠIn",
        "tern"
      ],
      [
        "Ġanim",
        "als"
      ],
      [
        "Ġ19",
        "4"
      ],
      [
        "Ġpress",
        "ure"
      ],
      [
        "Ġquest",
        "ions"
      ],
      [
        "Ġb",
        "rain"
      ],
      [
        "Ġte",
        "xt"
      ],
      [
        "at",
        "ives"
      ],
      [
        "Ġcont",
        "ain"
      ],
      [
        "ag",
        "ine"
      ],
      [
        "ear",
        "ch"
      ],
      [
        "ĠA",
        "m"
      ],
      [
        "Ġ19",
        "6"
      ],
      [
        "Ġs",
        "un"
      ],
      [
        "Ġ",
        "ri"
      ],
      [
        "Ġem",
        "b"
      ],
      [
        "Ġresearc",
        "hers"
      ],
      [
        "Ġn",
        "ature"
      ],
      [
        "o",
        "res"
      ],
      [
        "Ġd",
        "est"
      ],
      [
        "Ġrelations",
        "hip"
      ],
      [
        "art",
        "ment"
      ],
      [
        "c",
        "hed"
      ],
      [
        "et",
        "er"
      ],
      [
        "Ġreg",
        "ard"
      ],
      [
        "Ġfam",
        "il"
      ],
      [
        "m",
        "a"
      ],
      [
        "ĠH",
        "ist"
      ],
      [
        "Ġpr",
        "inci"
      ],
      [
        "Ġs",
        "ite"
      ],
      [
        "it",
        "es"
      ],
      [
        "Ġs",
        "ens"
      ],
      [
        "Ġphys",
        "ical"
      ],
      [
        "ac",
        "ed"
      ],
      [
        "Ġobs",
        "erv"
      ],
      [
        "I",
        "I"
      ],
      [
        "Ġcre",
        "ated"
      ],
      [
        "Ġimpro",
        "ve"
      ],
      [
        "sy",
        "ch"
      ],
      [
        "g",
        "o"
      ],
      [
        "ric",
        "t"
      ],
      [
        "ĠG",
        "u"
      ],
      [
        "ver",
        "age"
      ],
      [
        "C",
        "h"
      ],
      [
        "Ġ",
        "vers"
      ],
      [
        "ar",
        "ies"
      ],
      [
        "ĠH",
        "is"
      ],
      [
        "e",
        "b"
      ],
      [
        "is",
        "ing"
      ],
      [
        "Ġexpl",
        "ore"
      ],
      [
        "Ġf",
        "r"
      ],
      [
        "Ġw",
        "ent"
      ],
      [
        "ĠD",
        "ep"
      ],
      [
        "Ġacc",
        "ording"
      ],
      [
        "ir",
        "l"
      ],
      [
        "Ġsom",
        "etimes"
      ],
      [
        "Ġte",
        "ac"
      ],
      [
        "ful",
        "ly"
      ],
      [
        "re",
        "l"
      ],
      [
        "Ġm",
        "ind"
      ],
      [
        "Ġlit",
        "er"
      ],
      [
        "ri",
        "ed"
      ],
      [
        "Ġon",
        "ce"
      ],
      [
        "ĠG",
        "o"
      ],
      [
        "Ġt",
        "ell"
      ],
      [
        "Ġf",
        "all"
      ],
      [
        "Ġval",
        "ue"
      ],
      [
        "Ġpolit",
        "ical"
      ],
      [
        "ĠR",
        "ep"
      ],
      [
        "Ġdevelop",
        "ed"
      ],
      [
        "Ġph",
        "ot"
      ],
      [
        "Ġn",
        "amed"
      ],
      [
        "Ġl",
        "ive"
      ],
      [
        "1",
        "1"
      ],
      [
        "Ġopp",
        "ortun"
      ],
      [
        "Ġe",
        "ither"
      ],
      [
        "Ġeffect",
        "s"
      ],
      [
        "Ġse",
        "ason"
      ],
      [
        "n",
        "ed"
      ],
      [
        "Ġde",
        "b"
      ],
      [
        "ri",
        "pt"
      ],
      [
        "Ġhe",
        "av"
      ],
      [
        "Ġdet",
        "ail"
      ],
      [
        "in",
        "ary"
      ],
      [
        "Ġev",
        "idence"
      ],
      [
        "\"",
        "."
      ],
      [
        "Ġde",
        "ep"
      ],
      [
        "ur",
        "b"
      ],
      [
        "Ġm",
        "ass"
      ],
      [
        "Ġche",
        "m"
      ],
      [
        "Ġl",
        "ower"
      ],
      [
        "ag",
        "ing"
      ],
      [
        "Ġassoci",
        "ated"
      ],
      [
        "l",
        "ike"
      ],
      [
        "Ġpro",
        "b"
      ],
      [
        "Ġmed",
        "ical"
      ],
      [
        "il",
        "s"
      ],
      [
        "ac",
        "ks"
      ],
      [
        "Ġc",
        "ases"
      ],
      [
        "es",
        "tern"
      ],
      [
        "Ġw",
        "in"
      ],
      [
        "an",
        "ced"
      ],
      [
        "Ġt",
        "aken"
      ],
      [
        "ro",
        "ll"
      ],
      [
        "Ġquest",
        "ion"
      ],
      [
        "Ġh",
        "alf"
      ],
      [
        "Ġactiv",
        "ities"
      ],
      [
        "ĠBrit",
        "ish"
      ],
      [
        "T",
        "o"
      ],
      [
        "Ġstart",
        "ed"
      ],
      [
        "ach",
        "ing"
      ],
      [
        "ac",
        "c"
      ],
      [
        "Ġa",
        "chie"
      ],
      [
        "Ġqu",
        "ick"
      ],
      [
        "Ġser",
        "ies"
      ],
      [
        "ed",
        "s"
      ],
      [
        "ĠEng",
        "lish"
      ],
      [
        "Ġd",
        "ig"
      ],
      [
        "re",
        "g"
      ],
      [
        "Ġpat",
        "tern"
      ],
      [
        "Ġint",
        "rodu"
      ],
      [
        "Ġmod",
        "el"
      ],
      [
        "ĠN",
        "e"
      ],
      [
        "read",
        "y"
      ],
      [
        "Ġsu",
        "per"
      ],
      [
        "F",
        "or"
      ],
      [
        "Ġent",
        "ire"
      ],
      [
        "ĠEar",
        "th"
      ],
      [
        "u",
        "el"
      ],
      [
        "Ġfl",
        "u"
      ],
      [
        "Ġpl",
        "ants"
      ],
      [
        "ut",
        "ions"
      ],
      [
        "ĠSt",
        "ate"
      ],
      [
        "Ġthem",
        "selves"
      ],
      [
        "ys",
        "is"
      ],
      [
        "ĠJ",
        "ew"
      ],
      [
        "Ġc",
        "ut"
      ],
      [
        "it",
        "ary"
      ],
      [
        "A",
        "S"
      ],
      [
        "s",
        "h"
      ],
      [
        "ul",
        "ations"
      ],
      [
        "Ġfre",
        "qu"
      ],
      [
        "Ġf",
        "ig"
      ],
      [
        "Ġ",
        "|"
      ],
      [
        "Ġd",
        "oc"
      ],
      [
        "Ġeng",
        "ine"
      ],
      [
        "Ġserv",
        "ices"
      ],
      [
        "Ġd",
        "om"
      ],
      [
        "Ġsit",
        "u"
      ],
      [
        "Ġsym",
        "ptoms"
      ],
      [
        "Ġ",
        "/"
      ],
      [
        "Ġto",
        "t"
      ],
      [
        "at",
        "tle"
      ],
      [
        "is",
        "on"
      ],
      [
        "Ġl",
        "ay"
      ],
      [
        "ĠC",
        "o"
      ],
      [
        "Ġpub",
        "lished"
      ],
      [
        "Ð",
        "¾"
      ],
      [
        "ĠSt",
        "ud"
      ],
      [
        "Ġto",
        "wards"
      ],
      [
        "Ġde",
        "g"
      ],
      [
        "Ġf",
        "ail"
      ],
      [
        "Ġem",
        "ploy"
      ],
      [
        "Ġsub",
        "ject"
      ],
      [
        "Ġy",
        "et"
      ],
      [
        "..",
        "."
      ],
      [
        "Ġpop",
        "ular"
      ],
      [
        "ep",
        "end"
      ],
      [
        "Ġperson",
        "al"
      ],
      [
        "Ġsu",
        "re"
      ],
      [
        "Ġpat",
        "ients"
      ],
      [
        "ac",
        "hed"
      ],
      [
        "Ġev",
        "ents"
      ],
      [
        "Ġind",
        "ic"
      ],
      [
        "end",
        "s"
      ],
      [
        "Ġpart",
        "s"
      ],
      [
        "Ġneed",
        "ed"
      ],
      [
        "n",
        "s"
      ],
      [
        "on",
        "y"
      ],
      [
        "iqu",
        "es"
      ],
      [
        "ow",
        "s"
      ],
      [
        "Ġess",
        "ential"
      ],
      [
        "op",
        "s"
      ],
      [
        "i",
        "ation"
      ],
      [
        "3",
        "0"
      ],
      [
        "Ġm",
        "or"
      ],
      [
        "Ġab",
        "s"
      ],
      [
        "Ġs",
        "ent"
      ],
      [
        "em",
        "pt"
      ],
      [
        "Ġsim",
        "ple"
      ],
      [
        "imate",
        "ly"
      ],
      [
        "Ġc",
        "y"
      ],
      [
        "ov",
        "ed"
      ],
      [
        "f",
        "act"
      ],
      [
        "Ġre",
        "ally"
      ],
      [
        "im",
        "ent"
[...]
